่ 802786
้ 528846
. 233042
็ 138298
์ 76792
ที 63802
น@@ 56167
และ@@ 53333
이 49643
의 40308
ง@@ 37358
한 37333
에 36721
ของ@@ 36668
을 36385
น 34251
า@@ 32856
ได 32153
อ@@ 31345
เป 30484
ไม 30458
은 30420
ว 27626
ใน@@ 27075
อง@@ 26236
이@@ 26072
ต 25183
อย 25121
าง@@ 24979
แต 23867
ก 23205
การ@@ 21653
하고 21295
ด 20940
그 20871
하는 20426
ม@@ 20240
จะ@@ 20164
수 19817
과 19430
도 19273
지@@ 18945
มี@@ 18655
기@@ 18653
าน@@ 18202
에서 18038
사@@ 18025
할 17956
เมื 17458
ฉัน@@ 17162
대@@ 16816
가 16785
는 16667
있는 16601
고 16589
수@@ 16393
시@@ 16262
า 16133
으로 15826
가@@ 15666
주@@ 15180
ผู 15122
를 15097
고@@ 14764
부@@ 14719
เพื 14539
로 14524
ว@@ 14065
있다 14007
지 13760
자@@ 13672
ๆ 13591
전@@ 13542
ก@@ 13412
했다 13325
일@@ 13265
วย@@ 13217
다 13166
인@@ 13029
ร 13016
아@@ 12961
어@@ 12822
정@@ 12805
보@@ 12676
นี 12619
นั 12543
กับ@@ 12509
าย@@ 12424
와 11839
อยู 11731
소@@ 11649
동@@ 11585
อน@@ 11419
기 11410
장@@ 11345
ง 11299
상@@ 11257
하@@ 11213
게 11182
สามารถ@@ 11091
ให 10924
ใช 10831
무@@ 10734
เขา@@ 10707
한@@ 10701
신@@ 10650
ซึ 10617
해 10615
จาก@@ 10495
인 10476
비@@ 10465
เข 10459
나@@ 10406
해@@ 10257
조@@ 10204
ข 10200
บ@@ 10126
구@@ 10086
성@@ 9991
ตาม@@ 9964
서@@ 9938
ถูก@@ 9911
มัน@@ 9893
ของ 9880
리@@ 9862
다@@ 9767
여@@ 9652
그@@ 9631
แล 9586
ส 9542
หรือ@@ 9540
공@@ 9488
แม 9463
คน@@ 9390
유@@ 9329
บ 9278
งที 9272
ในการ@@ 9193
ล 9140
것이다 9133
เช 9067
อ 9066
나는 9059
나 9046
오@@ 9021
하게 9006
ำ@@ 8990
ความ@@ 8953
원@@ 8904
미@@ 8830
าที 8694
ทั 8679
어 8600
รู 8597
제@@ 8505
연@@ 8483
스@@ 8460
선@@ 8340
도@@ 8338
의@@ 8307
한다 8261
적 8235
우@@ 8214
거@@ 8205
마@@ 8113
ดังนั 8062
สิ 8027
재@@ 7732
된 7717
세@@ 7689
ส@@ 7673
있었다 7666
내@@ 7645
안@@ 7645
화@@ 7635
만 7608
진@@ 7601
말@@ 7504
โดย@@ 7490
าว@@ 7474
ผ 7464
일 7455
모@@ 7425
경@@ 7343
중@@ 7283
นที 7271
มันเป 7191
กล 7105
감@@ 7097
들@@ 7061
คุณ@@ 7056
만@@ 6980
그는 6944
들이 6893
치@@ 6879
적인 6837
불@@ 6809
이다 6807
바@@ 6795
ของการ@@ 6792
ด@@ 6783
ล@@ 6773
ทาง@@ 6751
실@@ 6741
에는 6723
방@@ 6697
ถ 6660
เห 6621
แห 6595
ไป@@ 6583
3@@ 6575
개@@ 6543
จ@@ 6542
ฉันไม 6511
교@@ 6438
당@@ 6430
양@@ 6424
것은 6409
명@@ 6383
ค@@ 6372
ค 6365
, 6344
· 6257
ห 6237
입@@ 6237
างไรก 6210
것 6200
หน 6148
ช 6134
าของ@@ 6130
ม 6124
히 6116
자 6108
차@@ 6108
것이 6097
국@@ 6097
남@@ 6097
รับ@@ 6090
กำลัง@@ 6089
물@@ 6078
이나 6073
เล 6040
내 6035
위@@ 6023
등 6019
서 5962
반@@ 5959
로@@ 5953
ต@@ 5941
영@@ 5939
นและ@@ 5914
문@@ 5914
มา@@ 5909
발@@ 5863
같은 5846
하지 5793
อม@@ 5767
และการ@@ 5737
เกี 5719
เนื 5714
อย@@ 5697
두@@ 5669
노@@ 5659
강@@ 5654
대한 5641
산@@ 5618
ย@@ 5614
분@@ 5611
สำหรับ@@ 5577
라@@ 5555
คือ@@ 5547
าม@@ 5534
ทำ@@ 5529
단@@ 5523
เธอ@@ 5515
야 5511
저@@ 5494
그러나 5477
관@@ 5469
심@@ 5451
5@@ 5439
ท@@ 5395
파@@ 5374
ย 5369
행@@ 5349
4@@ 5348
k@@ 5345
บน@@ 5336
학@@ 5285
ตัว@@ 5283
두 5237
ร@@ 5211
หนึ 5211
회@@ 5210
적으로 5203
s@@ 5196
통@@ 5146
던 5122
ของฉัน@@ 5116
다는 5111
하여 5107
김@@ 5101
없는 5100
ป 5089
적@@ 5083
หลังจาก@@ 5080
것을 5077
ท 5075
배@@ 5061
เท 5010
또 5009
때 4961
ดี@@ 4957
วง@@ 4924
호@@ 4924
생@@ 4905
6@@ 4876
용@@ 4846
1@@ 4832
และ 4832
ของเขา@@ 4830
-@@ 4821
예@@ 4819
ขึ 4814
계@@ 4813
피@@ 4801
องการ@@ 4793
에게 4791
g@@ 4772
เด 4772
8@@ 4771
เหมือน@@ 4761
까지 4751
9@@ 4735
c@@ 4731
박@@ 4731
안 4730
매@@ 4721
현@@ 4715
นการ@@ 4705
사 4704
살@@ 4691
2@@ 4669
m@@ 4665
체@@ 4663
아 4633
เพราะ@@ 4615
라 4603
มีความ@@ 4582
다고 4570
ตั 4561
간@@ 4559
ปี@@ 4550
종@@ 4548
ทำให 4540
포@@ 4529
พวกเขา@@ 4526
추@@ 4517
기를 4487
내가 4487
대 4475
이는 4470
처럼 4470
식@@ 4460
외@@ 4453
천@@ 4450
들은 4431
집@@ 4415
그리고 4411
เจ 4407
더 4405
구 4390
장 4382
면 4367
มีการ@@ 4352
질@@ 4349
าง 4346
สอง@@ 4337
ใหม 4327
7@@ 4317
าและ@@ 4314
ดู@@ 4289
p@@ 4283
d@@ 4264
태@@ 4263
건@@ 4262
1 4246
달@@ 4231
초@@ 4230
ยวกับ@@ 4227
โ@@ 4226
평@@ 4223
เรื 4219
출@@ 4203
되는 4191
สึก@@ 4187
이었다 4183
려 4169
우리 4165
목@@ 4162
드@@ 4161
วน@@ 4142
ไปที 4136
될 4127
었다 4123
เพิ 4122
รับการ@@ 4110
e@@ 4108
? 4103
a@@ 4100
과@@ 4100
속@@ 4091
작@@ 4085
แก 4080
그의 4080
되@@ 4066
นใน@@ 4064
전 4056
리 4050
없이 4048
임@@ 4039
โดยไม 4036
ช@@ 4029
คนที 4020
다시 4020
ซ@@ 4010
며 3996
พ 3995
พ@@ 3994
청@@ 3987
요@@ 3985
2 3983
민@@ 3981
그런 3974
ระหว 3958
없@@ 3958
다른 3957
열@@ 3956
ซ 3954
들 3950
าการ@@ 3933
타@@ 3933
าวว 3929
เงิน@@ 3906
금@@ 3906
t@@ 3895
าส@@ 3887
진 3880
ชั 3879
ครั 3878
แ@@ 3830
b@@ 3811
นัก@@ 3805
직@@ 3801
เริ 3792
제 3790
것으로 3789
ถึง@@ 3785
니 3768
และความ@@ 3767
법@@ 3754
3 3747
말했다 3743
병@@ 3736
เก 3733
라는 3730
원 3723
งใน@@ 3715
들을 3696
절@@ 3694
ห@@ 3673
정 3673
a 3671
요 3668
였다 3655
형@@ 3653
ยัง@@ 3643
ชื 3626
결@@ 3624
ลง@@ 3622
งาน@@ 3619
백@@ 3614
이를 3612
허@@ 3609
손@@ 3592
ข@@ 3589
에도 3577
ป@@ 3575
สาม@@ 3572
าน 3570
หญิง@@ 3565
벌@@ 3564
순@@ 3558
ในขณะที 3547
5 3546
ิ@@ 3546
권@@ 3543
들의 3537
าจะ@@ 3525
ชีวิต@@ 3519
라고 3514
해서 3511
때문에 3509
있@@ 3499
후@@ 3495
지는 3492
นอกจากนี 3477
เรา@@ 3476
อีกครั 3473
ฮ@@ 3467
려@@ 3462
소 3453
에서는 3453
ภาพ@@ 3448
각@@ 3444
บริษัท 3438
ี 3436
คำ@@ 3418
จ 3404
i@@ 3398
애@@ 3398
위해 3398
되어 3393
าฉัน@@ 3388
된다 3385
l@@ 3384
กว 3373
처@@ 3372
ฟ@@ 3367
는데 3367
หาก@@ 3363
생각@@ 3359
องจาก@@ 3358
군@@ 3354
걸@@ 3352
นของ@@ 3336
리는 3328
.@@ 3323
เกาหลี@@ 3314
지만 3313
สร 3312
설@@ 3309
เขียน@@ 3305
ออก@@ 3304
편@@ 3300
야@@ 3296
ควร@@ 3291
านั 3291
가는 3289
อน 3286
면서 3286
창@@ 3286
하기 3279
4 3278
หรือไม 3277
สุด@@ 3273
변@@ 3268
환@@ 3265
อง 3257
하면 3253
ใน 3250
าคุณ@@ 3246
ของผู 3229
눈@@ 3229
อฉัน@@ 3227
ไว 3223
음@@ 3218
f@@ 3216
s 3215
총@@ 3198
잘 3191
e 3189
니@@ 3177
간 3174
투@@ 3172
돌@@ 3169
막@@ 3169
트@@ 3163
다가 3157
นความ@@ 3153
ชาย@@ 3148
함께 3148
เสียง@@ 3145
온 3135
วม@@ 3129
여 3113
약@@ 3112
레@@ 3107
않@@ 3107
าก@@ 3104
기가 3103
날@@ 3101
해야 3101
กัน@@ 3098
독@@ 3088
새@@ 3086
최@@ 3083
พูด@@ 3078
พื 3077
시 3071
것@@ 3062
토@@ 3061
죽@@ 3056
ะ@@ 3046
เปลี 3046
취@@ 3045
นำ@@ 3040
จากนั 3035
เปิด@@ 3026
난 3020
터@@ 3019
카@@ 3014
복@@ 3013
점@@ 3012
어떤 3000
데 2989
중 2980
말을 2978
านี 2977
년 2974
이런 2971
삼@@ 2967
าเป 2964
보다 2957
길@@ 2953
าร 2943
워@@ 2942
ออกจาก@@ 2937
년@@ 2933
승@@ 2932
근@@ 2924
๊ 2921
아니@@ 2914
เต 2913
แสดง@@ 2908
돌아@@ 2901
กร@@ 2891
ตอนนี 2889
하며 2889
르@@ 2883
없었다 2882
따라 2881
운@@ 2878
จะไม 2873
มือ@@ 2873
날 2872
역@@ 2871
있을 2870
เชื 2869
크@@ 2867
기도 2862
등@@ 2856
업@@ 2855
ปุ 2850
r@@ 2847
담@@ 2844
못@@ 2844
네 2842
พร 2840
수가 2839
h@@ 2834
w@@ 2830
i 2827
하다 2827
잡@@ 2822
철@@ 2815
한국@@ 2815
อก@@ 2814
기는 2811
พยายาม@@ 2809
했@@ 2809
ทำงาน@@ 2808
งและ@@ 2800
되고 2798
증@@ 2791
표@@ 2788
으@@ 2787
이라는 2787
누@@ 2783
상 2777
먹@@ 2775
ในวันที 2771
같이 2771
ในช 2769
มาก@@ 2766
แข 2761
알@@ 2755
วัน@@ 2752
ไ@@ 2752
은@@ 2750
코@@ 2748
울@@ 2739
งส@@ 2736
사람@@ 2735
มากกว 2730
แบบ@@ 2730
본@@ 2729
เดือน@@ 2724
อื 2722
들어@@ 2719
กระ@@ 2716
นส@@ 2716
이라고 2716
버@@ 2712
ฉันจะ@@ 2709
ของเธอ@@ 2708
스 2706
면@@ 2702
지를 2702
보고 2697
망@@ 2696
합@@ 2693
러@@ 2691
운 2682
월@@ 2679
n@@ 2674
k 2673
ประเทศ@@ 2665
급@@ 2665
ของคุณ@@ 2664
t 2663
참@@ 2663
으며 2651
เครื 2647
뒤@@ 2644
광@@ 2638
석@@ 2634
6 2618
อีก@@ 2616
ดี 2610
대로 2603
าเขา@@ 2599
ยน@@ 2597
สั 2596
o@@ 2594
มอง@@ 2594
부 2591
จึง@@ 2590
채@@ 2582
귀@@ 2575
หัว@@ 2570
때@@ 2568
จริง@@ 2565
มาก 2565
하였다 2565
볼 2563
เคย@@ 2558
이가 2551
ปี 2550
없다 2550
더@@ 2537
사는 2535
성 2528
그가 2527
u@@ 2523
ใหญ 2520
นไม 2519
까@@ 2519
an@@ 2512
ของเขา 2511
เหล 2509
모든 2507
กลาง@@ 2505
อร 2505
พบ@@ 2504
따@@ 2502
ใจ@@ 2501
in@@ 2490
않았다 2490
축@@ 2489
ิน@@ 2486
ามี@@ 2483
หลัง@@ 2477
이고 2476
장을 2473
갈@@ 2470
งเป 2465
습니다 2463
협@@ 2453
않고 2450
ะ 2446
าย 2446
เร@@ 2440
같@@ 2434
단 2422
당 2410
อาจ@@ 2406
줄@@ 2406
นผู 2404
그녀는 2400
듯 2400
린 2394
북@@ 2393
ละ@@ 2390
ซื 2389
บอกว 2389
에@@ 2388
ัก@@ 2386
าร@@ 2386
특@@ 2381
10@@ 2378
แน 2377
เย 2370
นเพราะ@@ 2369
가지 2369
งแต 2368
ของฉัน 2363
โดยการ@@ 2361
ch@@ 2359
번@@ 2359
ลูก@@ 2355
봉@@ 2350
데@@ 2349
네@@ 2341
악@@ 2339
및 2338
โลก@@ 2337
7 2336
어떻게 2335
부터 2334
대해 2327
งนี 2324
선 2324
หลาย@@ 2323
게@@ 2317
있다는 2317
นต 2307
ดูเหมือนว 2302
개 2302
바로 2302
세 2300
หยุด@@ 2296
어느 2296
후 2294
숙@@ 2293
ี@@ 2291
วาง@@ 2281
คิดว 2280
จะต 2278
lee 2275
하지만 2275
kim 2274
지난 2274
큰 2272
극@@ 2271
ตาย@@ 2270
향@@ 2270
งหมด@@ 2268
ามัน@@ 2264
판@@ 2261
프@@ 2259
อส@@ 2258
เพียง@@ 2258
것도 2255
일이 2255
ฉันคิดว 2250
모두 2249
많은 2247
사람이 2247
신 2245
จัด@@ 2244
ar@@ 2243
그렇게 2242
เก@@ 2238
리를 2232
o 2231
สำหรับการ@@ 2231
ไป 2230
กลายเป 2220
ฉัน 2219
산 2218
떠@@ 2215
เวลา@@ 2212
했던 2210
สี@@ 2208
เกิดขึ 2208
รัฐบาล@@ 2207
วยความ@@ 2205
져 2205
,000 2203
8 2203
นเรื 2201
ขาย@@ 2200
들어 2199
줄 2196
เกิด@@ 2192
y@@ 2189
ผล@@ 2186
등을 2176
จะถูก@@ 2175
ับ@@ 2175
언@@ 2171
รัก@@ 2169
นเป 2167
างประเทศ@@ 2166
โรงเรียน@@ 2162
─ 2160
무슨 2158
가장 2157
별@@ 2156
사를 2152
화 2152
자가 2151
지도 2150
치 2150
겨@@ 2147
หากคุณ@@ 2142
19@@ 2138
풍@@ 2137
จาก 2135
ใบหน 2135
주 2131
นอน@@ 2130
필@@ 2130
할@@ 2128
왜 2127
었@@ 2122
จัดการ@@ 2118
씨@@ 2117
성을 2116
ฉันก 2115
ทุก@@ 2114
กิน@@ 2111
왔@@ 2111
มที 2110
ยิ 2110
앞@@ 2110
아니라 2104
란 2101
자신의 2098
คิม@@ 2095
맞@@ 2092
ยง@@ 2091
- 2089
อาหาร@@ 2087
침@@ 2081
เซ@@ 2078
ุ@@ 2070
골@@ 2063
จากการ@@ 2059
한다는 2059
ถึง 2057
억@@ 2057
술@@ 2055
너@@ 2049
기에 2047
เท@@ 2045
으면 2045
ญี 2044
팔@@ 2043
일을 2040
그러@@ 2038
희@@ 2038
งของ@@ 2037
พี 2033
끝@@ 2032
전에 2030
ทหาร@@ 2029
คิด@@ 2028
난@@ 2028
격@@ 2027
ผ@@ 2026
질 2026
จะเป 2024
y 2023
ั 2022
ใต 2019
ตร@@ 2018
10 2017
하면서 2016
ฉันรู 2015
ฉันต 2013
는@@ 2013
상을 2013
ถาม@@ 2008
루@@ 2007
หม@@ 2005
ยิน@@ 2002
l 2001
ีย@@ 2001
และไม 2001
농@@ 1994
เมือง@@ 1992
๋ 1991
อด@@ 1988
กับการ@@ 1987
นา@@ 1986
งสอง@@ 1985
อะไร@@ 1982
오는 1982
보면 1977
서는 1977
สาย@@ 1975
리고 1975
용 1970
ชาว@@ 1968
뒤 1968
되었다 1967
글@@ 1966
찾아@@ 1960
몇 1957
แตกต 1956
채 1954
교육@@ 1953
มัน 1952
거나 1952
นคน@@ 1951
충@@ 1951
on@@ 1950
문을 1950
송@@ 1946
쓰@@ 1945
มันไม 1944
다면 1944
디@@ 1944
บอก@@ 1943
든 1941
명 1938
것이@@ 1936
리가 1935
속에 1935
พวก@@ 1932
ของเรา@@ 1929
พัฒนา@@ 1929
우리는 1928
อบ@@ 1927
จำนวน@@ 1924
동 1923
เค@@ 1919
규@@ 1917
긴 1917
왔다 1917
자는 1917
잠@@ 1916
보는 1913
ยังคง@@ 1912
วันที 1912
통해 1911
เม@@ 1910
ครู@@ 1907
놓@@ 1905
อายุ@@ 1904
사가 1903
ไฟ@@ 1902
붙@@ 1901
러 1899
การ 1898
เดิน@@ 1898
항@@ 1892
รถ@@ 1891
주는 1891
자를 1890
แรก@@ 1887
어서 1887
범@@ 1886
จับ@@ 1885
ในฐานะ@@ 1885
คือการ@@ 1884
ศึกษา@@ 1884
อการ@@ 1884
동안 1884
력@@ 1884
ถ@@ 1883
ประตู@@ 1882
อนที 1882
าว 1882
검@@ 1880
색@@ 1880
밀@@ 1877
우리@@ 1874
건 1872
นได 1866
ำ 1866
เร 1866
래@@ 1865
m 1857
อัน@@ 1856
놀@@ 1855
씨는 1854
서울@@ 1852
위한 1846
황@@ 1845
ปีที 1838
이제 1838
트 1836
ตา@@ 1833
ไปยัง@@ 1833
렸다 1831
ตรวจสอบ@@ 1829
ออกมา@@ 1829
an 1821
นว 1820
있어 1817
장이 1817
ในที 1811
ใส 1810
폭@@ 1810
물 1809
이렇게 1809
있고 1809
있다고 1809
v@@ 1806
ไข@@ 1806
지요 1806
0@@ 1805
างกาย@@ 1805
ิ 1805
ัด@@ 1802
จำเป 1798
시작@@ 1798
놓고 1797
คน 1795
ของความ@@ 1793
커@@ 1793
หน@@ 1791
이었@@ 1790
จะมี@@ 1789
าด@@ 1789
ใจ 1789
웃@@ 1787
กลับ@@ 1786
ฟัง@@ 1786
เลือก@@ 1785
책@@ 1784
ระบบ@@ 1782
문 1782
และมี@@ 1780
준@@ 1780
내려@@ 1777
าใน@@ 1776
장은 1776
วิ 1775
식 1775
경우 1772
이며 1770
차 1767
ภาพยนตร 1765
ระดับ@@ 1765
วยการ@@ 1764
능@@ 1764
란@@ 1764
받@@ 1764
ู@@ 1760
ติ@@ 1757
테@@ 1756
าใจ@@ 1752
겠@@ 1749
이란 1749
못 1743
ู 1742
들에게 1742
많이 1741
지고 1741
않은 1740
지가 1737
งขัน@@ 1736
위에 1736
릴 1735
는다 1732
드 1730
’ 1727
졌다 1727
위 1724
ระ@@ 1720
락@@ 1718
있었@@ 1717
말 1716
านการ@@ 1715
เรียกว 1715
좋@@ 1714
올@@ 1713
9 1710
ปาก@@ 1708
อา@@ 1708
re@@ 1707
on 1705
เ@@ 1705
ศิลปะ@@ 1703
풀@@ 1701
키@@ 1700
니까 1698
ออกไป@@ 1697
เบ@@ 1697
มขึ 1696
않았@@ 1691
เหนือ@@ 1688
기로 1688
돼 1688
ภาค@@ 1686
รวม@@ 1685
วิ@@ 1685
함@@ 1685
연구@@ 1683
เด@@ 1682
เจ@@ 1681
ฝ 1677
กลุ 1676
나를 1671
때문이다 1671
않는 1670
품@@ 1669
ปัญหา@@ 1667
슬@@ 1666
실 1665
있던 1665
좀 1663
; 1662
st@@ 1660
힘@@ 1659
메@@ 1658
หา@@ 1656
กำหนด@@ 1653
จุด@@ 1653
본 1651
เศรษฐกิจ@@ 1650
이미 1650
각 1649
ชาติ@@ 1648
ความคิด@@ 1647
수도 1645
았다 1645
싸@@ 1644
십@@ 1642
집 1642
고는 1641
องค 1640
กัน 1639
หนังสือ@@ 1638
เพลง@@ 1635
สี 1634
지금 1634
완@@ 1633
จะได 1632
이에 1632
방 1630
되었@@ 1629
วิธีการ@@ 1628
สำนักงาน@@ 1628
회 1627
꾸@@ 1625
คร@@ 1624
ความเป 1620
너무 1619
“ 1618
ในปี 1617
싶@@ 1613
al@@ 1609
사회@@ 1609
กฎหมาย@@ 1608
นด 1608
경제@@ 1608
홍@@ 1608
덕@@ 1606
육@@ 1605
ตลาด@@ 1604
กับ 1600
นอย 1600
คุณสามารถ@@ 1599
รวมถึง@@ 1598
20 1597
างที 1596
가지고 1596
사의 1596
자기 1596
베@@ 1595
정을 1595
ประมาณ 1593
ราวกับว 1589
สมาชิก@@ 1588
เรือ@@ 1588
자의 1588
ศ@@ 1586
갔다 1584
것이었다 1584
นมา@@ 1582
าไม 1582
ผิด@@ 1580
ความรู 1579
패@@ 1579
un@@ 1578
ยว@@ 1578
들고 1576
수는 1576
จอง@@ 1575
าหน 1575
이번 1575
อุตสาหกรรม@@ 1573
미 1573
ประ@@ 1569
เล@@ 1569
20@@ 1567
ทะเล@@ 1564
사람은 1564
하나 1562
เกาหลีเหนือ@@ 1561
쳐@@ 1560
친 1560
คือ 1559
그녀의 1557
ประธานาธิบดี@@ 1555
그래서 1553
저 1553
ใกล 1549
원을 1549
ยก@@ 1548
탄@@ 1548
ในประเทศ@@ 1547
ทุกคน@@ 1546
ปิด@@ 1542
ดื 1541
เรียน@@ 1541
ในเดือน@@ 1541
착@@ 1539
วย 1537
확@@ 1537
는지 1535
ของพวกเขา@@ 1533
염@@ 1533
ัง@@ 1532
가서 1531
넘@@ 1531
조 1530
듯이 1529
กล@@ 1528
그것은 1526
ดูเหมือนจะ@@ 1525
สำคัญ@@ 1523
30 1519
치는 1519
오 1518
ขั 1517
โม@@ 1517
ตื 1516
ไร 1515
ยาก@@ 1514
욕@@ 1514
갔@@ 1513
แค 1512
사용@@ 1510
เส@@ 1509
았@@ 1509
ลี@@ 1507
름@@ 1505
ับ 1504
เสื 1504
대학@@ 1503
몸@@ 1502
25@@ 1501
c 1497
คนอื 1497
나타@@ 1496
se@@ 1495
거 1494
เส 1493
ตัวเอง@@ 1492
여러 1492
옥@@ 1488
มนุษย 1487
กน 1486
d 1483
ซี@@ 1483
มาที 1483
นักเรียน@@ 1482
รอ@@ 1481
ัน@@ 1481
ปล@@ 1480
าล@@ 1480
ุ 1480
อล@@ 1479
อให 1479
หัวหน 1478
비 1478
ถือ@@ 1476
많@@ 1476
엔 1476
30@@ 1475
ปล 1475
끼@@ 1473
สม@@ 1472
묻@@ 1472
ตัดสินใจ@@ 1470
티@@ 1470
류@@ 1469
탈@@ 1469
ยนแปลง@@ 1468
말이 1468
ประธาน@@ 1467
ุน@@ 1467
คุณจะ@@ 1466
또한 1465
손을 1464
친@@ 1464
เขา 1463
거야 1463
일어@@ 1462
ประกาศ@@ 1461
물을 1461
립@@ 1460
ไหล@@ 1459
걸 1459
าต 1456
으나 1456
력 1455
학생@@ 1455
จิน@@ 1454
해도 1454
ธุรกิจ@@ 1452
ในเวลานั 1451
국민@@ 1450
마 1450
밤@@ 1450
사랑@@ 1450
군 1448
정치@@ 1448
알고 1447
응@@ 1447
ดำเนินการ@@ 1444
였@@ 1444
드러@@ 1443
r 1442
ริ@@ 1441
ใจที 1440
들과 1439
논@@ 1438
รา@@ 1437
속에서 1437
습@@ 1437
왕@@ 1437
좋은 1437
더니 1436
측@@ 1435
ธ@@ 1434
j@@ 1432
ายที 1431
가를 1429
am@@ 1428
두고 1428
적이 1428
금 1427
히@@ 1426
ชอบ@@ 1423
บท@@ 1423
คุณไม 1419
เขาไม 1419
씨가 1418
ขนาดใหญ 1414
มาจาก@@ 1414
권 1414
또는 1414
「 1412
혼@@ 1412
소리@@ 1410
เสีย@@ 1408
그런데 1408
ของเธอ 1407
คม@@ 1407
นฉัน@@ 1405
다며 1405
สิบ@@ 1404
ัน 1404
랑@@ 1404
먼저 1404
เขาก 1403
문제@@ 1403
งอยู 1402
맡@@ 1402
온@@ 1402
ยม@@ 1400
거리@@ 1400
국 1398
깨@@ 1398
ตรง@@ 1397
라도 1397
알 1397
พรรค@@ 1395
서울 1395
번 1394
윤@@ 1393
แรง@@ 1391
갈 1390
눈을 1390
คืน@@ 1388
งแรก@@ 1388
งชาติ@@ 1387
ขอ@@ 1386
위원@@ 1385
ยวข 1384
력을 1384
명을 1384
le@@ 1380
าก 1379
ตก@@ 1377
특히 1377
한다고 1377
ฉันได 1375
นก@@ 1375
สื 1375
กที 1374
นาย@@ 1373
니다 1373
세계@@ 1373
พล@@ 1372
สูง@@ 1371
문화@@ 1371
ื 1370
접@@ 1370
มากขึ 1368
ขาด@@ 1367
준 1367
วอน@@ 1366
เรียก@@ 1365
에서도 1365
ัม@@ 1364
가고 1364
머@@ 1364
คุณ 1363
주고 1361
명이 1360
법 1360
뜻@@ 1359
คล@@ 1358
론@@ 1358
물론 1358
ครอบครัว@@ 1357
명의 1356
활@@ 1355
ดิน@@ 1354
빠@@ 1354
อสู 1353
ามันเป 1352
อที 1351
เวล@@ 1349
ประชุม@@ 1348
뜨@@ 1348
แบ 1347
계 1347
천 1347
โก@@ 1346
몰@@ 1346
พลัง@@ 1343
อาศัยอยู 1343
폐@@ 1343
มั 1340
～ 1340
지나@@ 1339
ro@@ 1338
만큼 1338
헤@@ 1338
곳@@ 1337
u 1336
갖@@ 1335
เกาหลี 1334
대표@@ 1334
รักษา@@ 1332
าความ@@ 1332
이라 1331
내는 1328
도록 1327
างไร 1326
사람 1326
잘@@ 1324
en@@ 1323
느@@ 1323
รูป@@ 1321
ทิ 1319
씩 1318
วด@@ 1317
거의 1317
암@@ 1317
เดียวกัน@@ 1316
린@@ 1314
곡@@ 1309
นก 1308
앉아 1308
ในห 1307
เลย 1306
정이 1304
าไปใน@@ 1303
것이라고 1303
들었다 1303
와@@ 1303
ลด@@ 1302
움@@ 1302
했고 1302
등의 1301
않을 1301
ตัด@@ 1300
หย@@ 1299
金@@ 1299
su@@ 1297
길 1297
ยังไม 1296
수를 1296
มีอะไร@@ 1294
대를 1293
던@@ 1293
되지 1293
학 1293
새로운 1292
워 1291
퍼@@ 1291
so@@ 1290
브@@ 1290
ชน@@ 1289
สน@@ 1289
านที 1288
หัวเราะ@@ 1285
분 1285
ดีที 1284
รี@@ 1282
점을 1282
퇴@@ 1282
어요 1281
ตอน@@ 1280
าพวกเขา@@ 1280
ยอง@@ 1279
อความ@@ 1279
sang@@ 1277
จะทำ@@ 1276
ยา@@ 1276
등이 1276
199@@ 1275
을@@ 1274
นอยู 1273
하나@@ 1273
โร@@ 1272
มันก 1271
까 1271
씨 1270
สงคราม@@ 1269
늘@@ 1269
15@@ 1266
รุ 1266
때문@@ 1266
นนี 1265
꼬@@ 1265
놈@@ 1265
ภายใต 1264
านและ@@ 1264
이루@@ 1262
쳐 1262
ผลิต@@ 1261
แท 1260
됐@@ 1260
소리가 1260
คุณต 1259
더욱 1259
พิเศษ@@ 1258
운동@@ 1258
เชิง@@ 1256
서로 1256
z@@ 1255
ใด 1254
인이 1252
읽@@ 1252
한국 1252
สถานที 1251
สมัคร@@ 1251
보았다 1250
นร@@ 1249
이상@@ 1249
กับความ@@ 1248
ประวัติศาสตร 1248
หมาย@@ 1248
or@@ 1245
มิ@@ 1245
นเพียง@@ 1244
고개를 1244
숨@@ 1244
บางอย 1242
ปลาย@@ 1242
เคลื 1242
나서 1242
났@@ 1241
답@@ 1241
จำ@@ 1240
관 1240
이용@@ 1240
อากาศ@@ 1239
곧 1238
หลัก@@ 1236
마음@@ 1235
ธนาคาร@@ 1234
อาจารย 1234
รอบ@@ 1233
흐@@ 1233
พระ@@ 1232
성이 1232
하던 1232
il@@ 1230
역시 1230
달 1229
ากับ@@ 1227
ิก@@ 1227
겨 1227
แยก@@ 1226
ang@@ 1224
สถานการณ 1224
주의@@ 1224
떨어@@ 1223
아직 1223
าเธอ@@ 1222
기업@@ 1222
잔@@ 1222
우 1221
at@@ 1220
และผู 1220
우리가 1219
เรียนรู 1218
올라@@ 1218
안에 1217
แท@@ 1216
도를 1216
위를 1216
료@@ 1215
เขาบอกว 1214
ตอบ@@ 1213
มหาวิทยาลัย@@ 1213
이라@@ 1213
ตะวันตก@@ 1212
ภายใน@@ 1212
득@@ 1210
โต 1209
ไหน@@ 1209
치고 1209
าด 1206
นเมื 1205
ang 1204
친구@@ 1204
났다 1202
찾@@ 1201
림@@ 1200
he@@ 1199
ในความ@@ 1199
it@@ 1198
งาน 1197
ฉ@@ 1196
นจริง@@ 1194
องนี 1194
ใบ@@ 1194
같았다 1191
ฆ 1189
จำนวนมาก@@ 1189
ญ@@ 1189
เอ@@ 1188
영화@@ 1188
เย@@ 1187
자신@@ 1187
ho@@ 1186
างของ@@ 1186
미국 1185
มและ@@ 1184
องที 1183
가운데 1183
견@@ 1182
압@@ 1182
화를 1182
ยวกับการ@@ 1181
앞에 1181
령@@ 1180
올 1180
อมูล@@ 1179
กระจาย@@ 1178
제가 1178
필요@@ 1178
วนใหญ 1177
혁@@ 1177
ไปใน@@ 1176
สอน@@ 1175
ขณะที 1174
บุคคล@@ 1174
르고 1173
แนะนำ@@ 1171
อมกับ@@ 1169
나가@@ 1169
เปิดเผย@@ 1166
마련@@ 1166
ฟ 1165
누구@@ 1165
따라서 1165
밖에 1165
아이@@ 1165
백 1164
여자@@ 1164
กี 1163
แด@@ 1163
학교 1163
한테 1163
เน 1162
즈@@ 1161
이러한 1160
짓@@ 1160
ri@@ 1159
-g@@ 1158
นสิ 1158
딸@@ 1158
음 1158
살 1155
찬@@ 1155
혜@@ 1155
si@@ 1154
ทีม@@ 1154
ตำแหน 1153
얼마나 1153
รายงาน@@ 1152
둥@@ 1151
จู@@ 1150
นไปได 1150
량@@ 1150
พนักงาน@@ 1149
วัฒนธรรม@@ 1149
อนไหว@@ 1148
มต 1147
새 1147
자연@@ 1147
존재@@ 1147
12@@ 1145
일본@@ 1145
높@@ 1143
아서 1143
미국@@ 1142
바라@@ 1142
ใคร@@ 1141
얼@@ 1141
งความ@@ 1137
หิน@@ 1137
관계@@ 1137
er@@ 1134
สาร@@ 1134
시간@@ 1134
인의 1134
학교@@ 1134
&amp; 1133
เข@@ 1133
소리를 1133
이와 1133
는가 1132
은행@@ 1131
치를 1131
เฉพาะ@@ 1130
생 1129
นาน@@ 1128
때는 1128
장의 1128
밝@@ 1127
ราย@@ 1126
18@@ 1123
มาถึง@@ 1123
ae 1122
ตำรวจ@@ 1122
นโยบาย@@ 1122
살아@@ 1122
생활@@ 1122
ชม@@ 1121
이지 1121
짜@@ 1121
การศึกษา@@ 1119
โซ@@ 1119
p 1118
อต 1118
ั@@ 1118
โทรศัพท 1118
」 1118
다음 1118
들도 1118
녀@@ 1117
엄@@ 1117
มากที 1116
ศาล@@ 1116
แทนที 1116
결정@@ 1116
흥@@ 1116
너 1115
ทำลาย@@ 1114
นนั 1113
เว@@ 1113
사람들이 1113
곤 1112
do@@ 1111
คล 1111
าผู 1111
들었@@ 1111
믿@@ 1111
คำพูด@@ 1110
วไป@@ 1110
이야 1110
호 1109
39 1107
인데 1107
졌@@ 1107
현재 1107
ยาว@@ 1105
반 1105
어지@@ 1105
นเพื 1104
울 1104
낸 1103
입니다 1103
” 1102
져@@ 1102
ขอให 1101
ปร@@ 1101
정도@@ 1100
-s@@ 1099
ลง 1099
หลังจากการ@@ 1099
เดินทาง@@ 1099
떨@@ 1099
อวันที 1098
นฉันจึง@@ 1097
พิ@@ 1097
อายุ 1097
됐다 1097
กและ@@ 1096
โซล@@ 1096
นิ@@ 1095
ฝ@@ 1095
างรวดเร 1095
ในวัน@@ 1093
냐 1093
래 1093
굴@@ 1091
몸을 1091
식을 1090
이라도 1090
ภาษา@@ 1089
가능@@ 1089
주의 1089
한번 1088
วิธี@@ 1086
나의 1086
สังคม@@ 1082
클@@ 1082
혀 1082
in 1081
อคุณ@@ 1081
อะไร 1081
와서 1081
칠@@ 1081
นคือ@@ 1080
พัก@@ 1080
장에 1080
ปฏิบัติ@@ 1079
갑@@ 1079
아주 1079
으니 1078
คณะกรรมการ@@ 1077
넣@@ 1077
이날 1076
죠 1075
쪽 1075
교 1074
페@@ 1074
나라@@ 1073
나와 1073
크게 1073
โดย 1072
อเขา@@ 1071
모르@@ 1071
ตัวอย 1070
ภูเขา@@ 1070
มุม@@ 1070
หล@@ 1070
ายของ@@ 1070
วันนี 1069
อของ@@ 1069
존@@ 1069
จนถึง@@ 1068
างยิ 1068
ติด@@ 1067
นฐาน@@ 1066
만한 1066
경찰@@ 1064
급 1064
예술@@ 1064
죄@@ 1064
กับผู 1063
งใจ@@ 1063
길을 1063
했다고 1063
로부터 1062
밝혔다 1062
알아@@ 1062
ุก@@ 1061
앞으로 1061
นทาง@@ 1060
틀@@ 1060
간의 1059
빛@@ 1059
인지 1059
쪽으로 1059
헌@@ 1058
ดง@@ 1057
พูดว 1055
원의 1055
집에 1054
찍@@ 1054
หาย@@ 1053
양 1053
จัก@@ 1052
ลูกสาว@@ 1051
척@@ 1050
bu@@ 1049
หก@@ 1049
แส@@ 1049
โอ@@ 1048
านของ@@ 1047
나무@@ 1046
속 1046
องกัน@@ 1045
เวลา 1045
자유@@ 1045
생각이 1044
งงาน@@ 1043
ชี 1043
บันทึก@@ 1043
팀@@ 1042
กลับมา@@ 1041
กอง@@ 1041
마다 1040
ตามที 1039
บางครั 1039
력이 1039
뿐@@ 1039
없었@@ 1039
จริง 1038
기의 1038
빨@@ 1038
ชา@@ 1037
มีใคร@@ 1037
흘@@ 1037
san 1035
วและ@@ 1035
อไป@@ 1035
가지@@ 1035
이의 1035
체 1034
หว@@ 1033
돈@@ 1033
자신이 1033
전을 1033
책을 1033
าเขาจะ@@ 1032
물었다 1032
이상 1032
ทำ 1031
님@@ 1031
행 1031
의식@@ 1030
สนาม@@ 1029
어디@@ 1029
그를 1028
그렇@@ 1027
렸@@ 1027
ชุด@@ 1026
ิล@@ 1026
보니 1026
그때 1025
จี@@ 1024
บริหาร@@ 1024
างการ@@ 1024
입을 1024
점 1024
งการ@@ 1023
이해@@ 1023
สนับสนุน@@ 1022
우는 1021
좌@@ 1021
โด@@ 1017
꿈@@ 1017
약 1017
ทำไม@@ 1015
꼭 1015
าค@@ 1014
นิยม@@ 1012
หัวใจ@@ 1011
사람의 1011
าฉันจะ@@ 1010
기다@@ 1010
ประกอบ@@ 1009
탁@@ 1009
화가 1009
루 1007
만나@@ 1007
park 1006
업 1006
คอมพิวเตอร 1005
รร@@ 1005
สามี@@ 1005
หัน@@ 1005
และเป 1005
un 1004
제를 1004
il 1003
경제 1003
จาง@@ 1002
สาว@@ 1002
เน@@ 1002
려고 1002
ปัจจุบัน@@ 1001
례@@ 1001
ถึงความ@@ 1000
มุ 1000
ดึง@@ 999
ลม@@ 999
국가@@ 999
스트@@ 999
요구@@ 998
mo@@ 996
คู 996
민주@@ 996
웠다 996
궁@@ 994
앉@@ 994
seo@@ 992
เลี 992
ลดลง@@ 991
ศาสตร 989
생각을 989
หุ 988
องไห 988
ิง@@ 988
เตรียม@@ 988
그들은 988
보였다 988
짝@@ 988
ประเภท@@ 987
หญิงที 987
หนังสือพิมพ 987
개발@@ 984
ไหม 983
al 982
나도 982
못하고 982
일은 982
것처럼 981
지역@@ 981
คำถาม@@ 980
ตี@@ 980
มา 980
진다 980
집을 980
익@@ 979
เธอ 978
ไหน 978
액@@ 977
어야 977
กันและ@@ 976
ิต@@ 976
พา@@ 975
เป@@ 975
ดูเหมือน@@ 974
ธรรมชาติ@@ 974
# 973
00@@ 973
50@@ 973
อไป 973
มืด@@ 972
11@@ 971
ทางการ@@ 971
บิน@@ 971
อารมณ 971
대의 971
무 971
유 971
ฮัน@@ 970
วัน 969
อาจเป 969
โลก 969
쉬@@ 969
있게 968
เหตุผล@@ 967
늘 967
ung@@ 966
ควบคุม@@ 966
휴@@ 966
h 965
จน@@ 965
ตลอด@@ 964
ทางการเมือง@@ 964
받고 964
부는 964
อและ@@ 963
างจาก@@ 962
างไร@@ 962
우리의 962
합니다 962
อนและ@@ 960
mi@@ 958
หลีกเลี 958
설 958
บนพื 957
เช@@ 957
작은 957
ขนาด@@ 956
เดียว@@ 956
린다 956
마치 956
쯤 956
하였@@ 956
แสง@@ 955
간에 955
형 955
ha@@ 954
아닌 954
บางคน@@ 953
ลูกชาย@@ 952
เพียง 952
꽃@@ 951
er 950
บปวด@@ 950
작품@@ 950
ซู@@ 949
รอง@@ 949
เลือด@@ 949
개의 949
노동@@ 949
co@@ 948
ma@@ 948
งต 948
ในบ 948
받은 948
พัน@@ 947
힌 947
ดูแล@@ 946
별 946
사무@@ 946
장에서 945
족@@ 945
รัฐ@@ 944
모양@@ 944
อสร 943
발표@@ 942
의를 942
의미@@ 942
บาง@@ 941
ผลิตภัณฑ 941
표현@@ 941
-dong 940
ดร 940
벽@@ 940
확인@@ 940
객@@ 939
ขว@@ 938
องจากการ@@ 938
몇@@ 937
정부@@ 937
지에 937
คุ 936
สุ@@ 936
เงิน 936
뿐 936
든지 934
아니다 934
핵@@ 934
ทร@@ 933
นนัก@@ 933
นสุด@@ 933
ีย 933
ิม@@ 932
โรค@@ 932
상태@@ 932
스를 932
으로는 932
현실@@ 932
못한 931
นส 930
เหตุการณ 930
ครึ 929
당시 929
정말 929
갖고 928
정신@@ 928
bo@@ 927
사이@@ 927
움직@@ 927
50 926
จำกัด 926
นิ 926
ผม@@ 925
서를 925
ของคุณ 924
าสู 923
영 923
있지 922
ur@@ 921
มน@@ 921
ศูนย 921
갑자기 921
ดอกไม 920
สนใจ@@ 920
ามา@@ 920
부를 920
사실을 920
관한 919
모습을 919
기억@@ 918
dae@@ 917
ลำ@@ 917
ิส@@ 917
계속@@ 917
뒷@@ 917
ภาษี@@ 916
สูญเสีย@@ 916
อดีต@@ 916
색 916
이후 915
ปกครอง@@ 914
ราคา@@ 914
발견@@ 913
오히려 913
ออกมาจาก@@ 912
อำนาจ@@ 912
าหมาย@@ 912
되면 911
이면 911
과의 910
꺼@@ 909
사람을 909
중요한 909
นครั 908
국의 908
멀@@ 908
했지만 908
ความสัมพันธ 907
งขึ 907
ทางเศรษฐกิจ@@ 907
ัส@@ 907
ิน 907
네가 907
상의 907
กรรม@@ 906
그것을 906
jo@@ 905
시작했다 905
연 905
เศร 904
go@@ 903
วิจัย@@ 903
อิน@@ 903
그것이 903
쳤다 903
같다 902
어진 902
ขยาย@@ 901
ใด@@ 901
고도 901
없다는 901
인간@@ 901
있으며 901
그림@@ 900
석 900
원이 900
กำ@@ 899
본다 899
있는데 899
전혀 899
ณ@@ 898
ตัดสิน@@ 898
그녀가 898
재 898
휘@@ 898
15 897
사에 897
혀@@ 897
างและ@@ 896
나오@@ 895
직접 895
ากล@@ 894
내용@@ 894
돈을 893
ประโยชน 892
เหลือ@@ 892
그대로 892
금융@@ 892
아니 892
รวบรวม@@ 890
리지 890
여성@@ 890
ji@@ 889
ลืม@@ 889
냈다 889
세를 888
de@@ 887
에다 887
คาดว 886
หายไป@@ 886
ือ@@ 886
ตะ@@ 884
ถูกต 884
ยืน@@ 884
터 884
คนเดียว@@ 883
ภูมิ@@ 883
แพทย 883
ประเมิน@@ 882
รับผิดชอบ@@ 882
สวม@@ 882
없을 882
อุ@@ 881
ธรรม@@ 880
택@@ 880
สุด 879
찰@@ 879
คว@@ 878
ยอมรับ@@ 878
낼 878
아는 878
ซอง@@ 877
최근 877
งานที 876
นคนที 876
물이 876
วัตถุ@@ 875
สุดท 875
그리@@ 874
ตัดสินใจที 873
ขี 872
얼굴을 872
임을 872
สู 871
ธิ@@ 870
흔@@ 870
กลัว@@ 869
제도@@ 869
อว 868
จบ@@ 867
ัย@@ 867
설명@@ 867
결국 866
로는 865
사실@@ 865
세요 865
가르@@ 864
경 864
사건@@ 864
선을 864
음악@@ 864
ละคร@@ 863
인은 863
มี 862
โทร@@ 862
련@@ 862
ถน@@ 860
นอก@@ 860
누가 860
등에 860
쓸@@ 860
정도 860
중국@@ 860
0 859
หยิบ@@ 859
씨의 859
ของเกาหลี@@ 858
중에 858
ิด 857
เอก@@ 857
โดยเฉพาะอย 857
รูปแบบ@@ 856
านวอน@@ 856
속으로 856
อนข 855
ประชาชน@@ 854
녹@@ 854
바람@@ 854
พยายามที 853
문제를 853
입 853
주었다 853
ฉันเป 852
ภาพ 852
께 852
인을 852
잃@@ 852
징@@ 852
른 851
얘기@@ 851
กลิ 850
รู@@ 850
ลับ@@ 850
뭐@@ 850
즉 850
00 849
choi 848
จัดตั 848
จิ@@ 848
ายและ@@ 848
เติบโต@@ 848
괴@@ 848
보 848
부모@@ 848
종 848
จีน@@ 847
ชนะ@@ 847
ตัว 847
บริการ@@ 847
임 847
16@@ 846
ออ@@ 846
าแ@@ 846
เต@@ 846
과는 846
작 846
감을 845
무엇@@ 845
อยาก@@ 844
계획@@ 844
보이는 844
볼@@ 843
세계 843
수밖에 843
드는 842
아무 842
에게는 842
คาด@@ 841
ลอง@@ 841
둘@@ 841
เขาเป 840
sa@@ 838
ดาว@@ 838
มันจะ@@ 838
วล@@ 838
200@@ 837
กิจกรรม@@ 837
만에 837
술을 837
กรุงโซล@@ 836
มักจะ@@ 836
องกับ@@ 836
เมือง 836
먹고 836
회의@@ 836
กระบวนการ@@ 835
ฝัน@@ 835
อหน 835
혼자 835
ของเรา 834
문제가 834
상이 834
เธอก 833
แปลก@@ 833
นกัน 832
질을 832
หลับ@@ 831
낙@@ 831
ฉันกำลัง@@ 830
님 830
คยอง@@ 829
นแ@@ 829
างมาก@@ 829
แสดงให 829
쟁@@ 829
내고 828
นเหมือน@@ 827
เยี 827
민 827
빌@@ 827
시키@@ 827
yeong@@ 826
องและ@@ 826
구조@@ 826
리의 825
했을 825
มีข 824
ระยะ@@ 824
านมา@@ 824
가족@@ 824
곤@@ 824
낮@@ 823
받아 823
않는다 823
40 822
มีอยู 822
로서 822
사람들은 822
งไป@@ 821
ประจำ@@ 821
เกม@@ 821
ของนัก@@ 820
อผ 820
국제@@ 820
그냥 820
의해 820
มีส 819
สัน@@ 819
ฐาน@@ 818
ถนน@@ 818
วิจารณ 818
ในระหว 818
보며 818
쇠@@ 818
회를 818
ศาสตราจารย 817
หลังจากนั 817
ไกล@@ 817
심을 817
평가@@ 817
푸@@ 817
효@@ 817
ฮี@@ 816
านหลัง@@ 816
기술@@ 816
비가 816
차를 816
วน 815
ขาว@@ 814
ฟื 814
างขึ 814
โช@@ 814
โต@@ 814
놓은 814
눈에 814
han@@ 813
นอ@@ 813
พูด 813
대는 813
빈@@ 813
긴@@ 812
시를 812
싶은 812
-j@@ 811
การเมือง@@ 811
งใหญ 811
방을 810
40@@ 809
จิต@@ 809
ทุ@@ 809
มไปด 809
เงียบ@@ 809
ไหล 809
어려@@ 809
คดี@@ 808
สองคน@@ 808
나온 808
생산@@ 808
조선@@ 808
นสี@@ 807
름 807
맥@@ 807
ภัย@@ 806
แลกเปลี 806
목을 806
시간 806
สถาบัน@@ 805
묵@@ 805
시는 805
스럽게 804
처음 804
ตนเอง@@ 803
머리@@ 803
사이에 803
งก 802
안을 802
통 802
하는데 802
จดหมาย@@ 801
다니@@ 801
리에 800
보았@@ 800
14 799
คนหนึ 799
ทุกอย 798
เสียงของ@@ 798
가진 798
ตะวันออก@@ 797
ราค@@ 797
แขน@@ 797
여기@@ 797
ดวงตาของ@@ 796
อัยการ@@ 796
따라@@ 796
องของ@@ 795
일본 795
โรงพยาบาล@@ 794
을까 794
정한 794
sh@@ 793
ยืนอยู 793
대신 793
방송@@ 793
보이@@ 793
품 793
향해 793
หลังจากที 792
술 792
층@@ 792
รีบ@@ 791
납@@ 791
대가 791
훈@@ 791
am 790
도로 790
려는 790
li@@ 789
ปกติ@@ 789
ic@@ 788
ลึก@@ 788
듣@@ 788
사라@@ 788
역 788
했다는 788
ทฤษฎี@@ 787
สุข@@ 787
ปรากฏตัว@@ 785
เลย@@ 785
소리 785
นไป@@ 784
ออก 784
อาย@@ 784
준비@@ 784
겠다고 783
다가@@ 783
해결@@ 783
묘@@ 782
셔@@ 782
의원@@ 782
정책@@ 782
ตาของ@@ 781
างนั 781
개혁@@ 781
그래 781
기관@@ 781
므로 781
하니 781
oo@@ 780
สนุก@@ 779
แผ 779
이어 779
ผสม@@ 778
เบื 778
공 778
섭@@ 778
ของรัฐบาล@@ 777
อาคาร@@ 777
าทำไม@@ 777
ทำการ@@ 776
ปรากฏ@@ 776
เหมาะสม@@ 776
우선 775
이르@@ 775
ความสนใจ@@ 774
นหนึ 774
โรง@@ 774
별로 774
인사@@ 774
จัดขึ 773
po@@ 772
노 772
타고 772
ki@@ 771
องราว@@ 771
보여@@ 771
hae@@ 770
기록@@ 770
งมี@@ 769
ตาย 769
습니까 769
심 769
판 769
후보@@ 769
홀@@ 768
13@@ 767
ปฏิเสธ@@ 767
อาการ@@ 767
체를 767
ทำอะไร@@ 766
วก@@ 766
การที 765
รับความ@@ 765
หู@@ 765
อะ@@ 765
างเป 765
เขายัง@@ 765
하 765
สงบ@@ 764
어린@@ 764
없어 764
กระเป 763
นมี@@ 763
ปัญห@@ 763
วู@@ 763
머리를 763
ติดตาม@@ 762
รส@@ 762
ัต@@ 762
바 762
조사@@ 762
สัตว 761
โปรด@@ 761
겁@@ 761
남 761
남자@@ 761
뛰어@@ 761
즐@@ 761
칠 761
한편 761
คิดถึง@@ 760
ชีวิต 760
ษ 760
อธิบาย@@ 760
โล@@ 760
말로 760
밥@@ 760
ung-@@ 759
민족@@ 759
งหมด 758
얘@@ 758
수의 757
인가 757
จากความ@@ 756
ดัง@@ 756
เราไม 756
หนัก@@ 755
เตอร 755
대에 755
ออกมา 754
있었던 754
조직@@ 754
นตอน@@ 753
พูดถึง@@ 753
ุด@@ 753
เรีย@@ 753
없고 753
นม@@ 752
ปรับปรุง@@ 752
เทคโนโลยี@@ 752
깔@@ 752
결과@@ 751
국내 751
료 751
비를 751
선생님@@ 751
일에 751
있으@@ 751
เอา@@ 750
ในไม 750
뛰@@ 750
써@@ 750
있기 750
อก 749
계속 749
사고@@ 749
ae@@ 748
างหน 748
แรงงาน@@ 748
그들의 748
듯한 748
랑 748
เลือกตั 747
เอาชนะ@@ 747
만을 747
문이 747
음을 747
있습니다 747
회의 747
구나 746
스스로 746
활동@@ 746
บทกวี@@ 745
วั@@ 745
หมายถึง@@ 745
권을 745
년에 745
땅@@ 745
면서도 745
ชิ 744
นกับ@@ 743
부가 743
에서@@ 743
-gu 742
ในระดับ@@ 742
구성@@ 742
김 742
몽@@ 742
체의 742
สมาคม@@ 741
듯@@ 741
산업@@ 741
위로 741
la@@ 740
วนร 740
และฉัน@@ 740
곳에 740
단을 740
찌@@ 740
높은 739
순간 739
으로부터 739
하나의 739
มากมาย@@ 738
었던 738
원에 738
다음@@ 737
만들어 737
부분@@ 737
정도로 737
ณ 736
ลาย@@ 736
เขาได 736
이름@@ 736
전화@@ 736
하자 736
12 735
념@@ 735
หมด@@ 734
โยน@@ 734
운영@@ 734
금을 733
주장@@ 733
gyeong@@ 732
ยังมี@@ 732
าท@@ 732
냉@@ 732
보다는 732
옆@@ 732
ดังกล 731
เพ@@ 731
แจ 731
างกัน@@ 730
เสียชีวิต@@ 730
hy@@ 729
พูดอะไร@@ 729
봐@@ 728
쪽@@ 728
ra@@ 727
นขึ 727
วที 727
หมายความว 727
젖@@ 727
편 727
นใจ@@ 726
ศึกษ@@ 726
เห@@ 726
어디 726
점에서 726
촉@@ 726
woo 725
에서의 725
มันถูก@@ 724
เขารู 724
won 723
ตัวเอง 723
북한 723
งได 722
รายการ@@ 722
웠@@ 722
책임@@ 722
b 721
기만 721
도가 721
어머니는 721
พวกเขา 720
가져@@ 720
벗@@ 720
오늘 720
ของเขาและ@@ 719
สหรัฐ@@ 719
าสี@@ 719
걷@@ 719
หรือการ@@ 718
แย 718
โครงสร 718
강 718
받아@@ 718
부의 718
24@@ 717
25 717
พรรคประชาธิปัตย 717
อของฉัน@@ 717
ัล@@ 717
าม 717
เขต@@ 717
기대@@ 717
만이 717
งแกร 716
พบกับ@@ 716
가가 716
세상@@ 716
17@@ 715
x@@ 715
밤 715
점이 715
짐@@ 715
je@@ 714
งด 714
พบว 714
어도 714
ไข 713
이야기를 713
ภรรยาของ@@ 711
들이@@ 710
ตัน@@ 709
ฯลฯ 709
발 709
북한@@ 709
사업@@ 709
วาด@@ 708
หมู 708
말씀@@ 708
섬@@ 708
ษ@@ 707
แนวคิด@@ 707
산을 707
자기@@ 707
매우 706
뿌@@ 706
크 706
ทางการเงิน@@ 705
1.@@ 704
24 704
ของเร@@ 704
ยู@@ 704
만든 704
상황@@ 704
좋아@@ 704
n 703
มัก@@ 703
คำสั 702
างต 702
โฮ@@ 702
끊@@ 702
뉴@@ 702
라면 702
렁@@ 702
นเขา@@ 701
สาธารณะ@@ 701
สีขาว@@ 701
ในโลก@@ 701
선택@@ 701
오늘@@ 701
นหา@@ 700
만들어@@ 700
이야기@@ 700
กด@@ 699
นตัว@@ 699
นเต 699
าจ@@ 699
ูก@@ 699
เขามี@@ 699
ครู 698
พร@@ 698
아니었다 698
งไม 697
칼@@ 697
งหนึ 696
เจรจ@@ 696
둘러@@ 696
철학@@ 696
ho 695
กำลังจะ@@ 695
ประเทศ 695
밑@@ 695
한다면 695
งเดิม@@ 694
นคง@@ 694
เขาม@@ 694
เอง@@ 694
계를 694
기고 694
보인다 694
ฮยอน@@ 693
เสียงที 693
출 693
ของมนุษย 692
นจาก@@ 692
봤@@ 692
수준@@ 692
ถามว 691
สด@@ 691
างเช 691
길이 691
떼@@ 691
프로@@ 691
แสดงออก@@ 690
박 690
않으면 690
ยุค@@ 689
แดง@@ 689
โจมตี@@ 689
ขนาดเล 688
มอบ@@ 688
말은 688
나오는 687
함으로써 687
ิด@@ 686
ในแง 686
맹@@ 686
빼@@ 686
아직도 686
얻@@ 686
이어@@ 686
하다는 686
on-@@ 685
ทันที@@ 685
สู@@ 685
ึก@@ 685
ในวันนี 685
스의 685
정부 685
창 685
치가 685
ung 684
วิทยาศาสตร 684
리며 684
ตร 683
นเดียวกับ@@ 683
ยาน@@ 683
신문@@ 683
움을 683
케@@ 683
간다 682
잊@@ 682
준다 682
ne@@ 681
รอบ 681
านไป@@ 681
르는 681
자들이 681
켜@@ 681
กระทรวง@@ 680
ประสบความสำเร 680
ฝรั 680
างน 680
าได 680
나고 680
남아 680
식이 680
큰@@ 680
กรณี@@ 679
있겠@@ 679
잡고 679
198@@ 678
ba@@ 678
ของแม 678
ตาม 678
มีชีวิตอยู 678
공연@@ 678
나왔다 678
지도@@ 678
{ 677
ประชาธิปไตย@@ 677
마음을 677
면을 677
시간이 677
รุนแรง@@ 676
าไป@@ 676
느끼@@ 676
인정@@ 676
ฉาก@@ 675
ทิศทาง@@ 675
นค@@ 675
กระดาษ@@ 674
ขับ@@ 674
ดนตรี@@ 674
등으로 674
멋@@ 674
문학@@ 674
젊은 674
ประกัน@@ 673
รอย@@ 673
경영@@ 673
들에 673
봐 673
참 673
พอใจ@@ 672
มุมมอง@@ 672
지지 672
하루@@ 672
สอบสวน@@ 671
결혼@@ 671
ing 670
นาม@@ 670
รถไฟ@@ 670
구를 670
모습@@ 670
사회 670
투자@@ 670
dong@@ 669
ยืนยัน@@ 669
다만 669
록@@ 669
서서 669
정부의 669
งให 668
เปล 668
어나@@ 668
쥐@@ 668
ge@@ 667
ความคิดเห 667
ความรัก@@ 667
ดำ@@ 667
그랬@@ 667
발전@@ 667
실을 667
없다고 667
주인@@ 667
-do 666
ong@@ 666
ฉันมี@@ 666
วยเหลือ@@ 666
หนี@@ 666
เผ@@ 666
โค 666
거렸다 666
업을 666
초 666
ทันใดนั 665
ประสบการณ 665
ผิว@@ 665
พิจารณา@@ 665
อำนวยการ@@ 665
직 665
ชิน@@ 664
เดียว 664
것과 664
그래@@ 664
여전히 664
주로 664
บรรยากาศ@@ 663
ปาร 663
เปิดตัว@@ 663
걸어@@ 663
경쟁@@ 663
대답@@ 663
칭@@ 663
피 663
14@@ 662
โอ 662
제시@@ 662
ju 661
to@@ 661
ดีกว 661
ติดต 661
ปรับ@@ 661
วัย@@ 661
있어서 661
하거나 661
경을 660
독립@@ 660
สา@@ 659
원은 659
yu@@ 658
องฟ 658
านหน 658
เกิน@@ 658
เฟ@@ 658
미술@@ 658
보고@@ 658
จริงที 657
เสนอ@@ 657
ในหมู 657
소개@@ 657
이니 657
: 656
ของประเทศ@@ 656
ทันที 656
สัปดาห 656
าคุณจะ@@ 656
밖@@ 656
보호@@ 656
지의 656
ong-@@ 655
หลัง 655
ียน@@ 655
แนว@@ 655
방에 655
배 655
사진@@ 655
아버지는 655
위의 655
ky@@ 654
วิเคราะห 654
대학 654
ฝึก@@ 653
넘어@@ 653
대통령@@ 653
욱@@ 653
자리를 653
} 652
하겠@@ 652
그럴 651
으면서 650
잘못@@ 650
คะแน@@ 649
เธ@@ 649
추진@@ 649
함을 649
กระทำ@@ 648
วิทยาลัย@@ 648
ียง@@ 648
가에 648
어버@@ 648
었고 648
ีก@@ 647
แม@@ 647
똑@@ 647
중국 647
진행@@ 647
คณะ@@ 646
동시에 646
음이 646
มีคน@@ 644
때마다 644
자고 644
잠시 644
쿠@@ 644
ขน@@ 643
นเช 643
บัญชี@@ 643
เวลาที 643
감독@@ 643
겠다는 643
로를 643
부르@@ 643
쓴 643
앞에서 643
어렵@@ 643
สภาพ@@ 642
ิบ@@ 642
닥@@ 642
플@@ 642
현 642
องการที 641
อแม 641
블@@ 641
성의 641
전쟁@@ 641
ฉันเห 640
ัง 640
일반@@ 640
16 639
gi@@ 639
นาที@@ 639
ไล 639
자로 639
자리@@ 639
ดิ@@ 638
สองสาม@@ 638
관련 638
소를 638
ga@@ 637
ำมัน@@ 637
โปรแกรม@@ 637
ไปด 637
으로써 637
สุนัข@@ 636
เกลียด@@ 636
끄@@ 636
달려@@ 636
현대@@ 636
กลับไปที 635
그동안 635
식으로 635
있었고 635
했는데 635
งลง@@ 634
ยินเสียง@@ 634
วอน 634
แพร 634
โรงเรียนมัธยม@@ 634
그게 634
눈이 634
아래@@ 634
อค@@ 633
훨씬 633
จิตใจ@@ 632
교사@@ 632
그럼 632
덜@@ 632
발을 632
선거@@ 632
영화 632
สถานี@@ 631
ือ 631
ูล@@ 631
뭐 631
유지@@ 631
첫@@ 631
않아 630
분야@@ 629
สอบ@@ 628
분석@@ 628
얼굴@@ 628
님이 627
스러@@ 627
ยากที 626
미국의 626
sa 625
ของคน@@ 625
ยิง@@ 625
ยี 625
맛@@ 625
방법@@ 625
불을 625
시간을 625
청 625
รักษ@@ 624
지금@@ 624
춘@@ 624
하다고 624
합 624
บทความ@@ 623
เกาหลีและ@@ 623
런@@ 623
알려@@ 623
정부는 623
프 623
กังวล@@ 622
셨@@ 622
ทุน@@ 621
ยุ 621
ระเบิด@@ 621
สัก@@ 621
สึกว 621
ามาใน@@ 621
เดียวกัน 621
듣고 621
말고 621
오후 621
กำกับ@@ 620
สภา@@ 620
หนี 620
อเนื 620
เอเชีย@@ 620
외국@@ 620
ปฏิรูป@@ 619
องถิ 619
เกาหลีใต 619
เสร 619
โอกาส@@ 619
마음이 619
적을 619
jin@@ 618
นคุณ@@ 618
นจึง@@ 618
기준@@ 618
시민@@ 618
การประชุม@@ 617
시켜 617
그건 616
이기 616
정보@@ 616
ดำเนิน@@ 615
ทุกข 615
ผูก@@ 615
แบบนี 615
덩@@ 615
집으로 615
캐@@ 615
แสดงความ@@ 614
값@@ 614
레이@@ 614
있지만 614
타 614
บัตร@@ 613
สัมผัส@@ 613
ากำลัง@@ 613
เหตุผลที 613
쓰고 613
장관@@ 613
판단@@ 613
해를 613
แผนก@@ 612
작업@@ 612
พิมพ 611
늘어@@ 611
보지 611
โดยใช 610
당한 610
สำหรับผู 609
เกาะ@@ 609
관련@@ 609
아내@@ 609
애 609
조금 609
표 609
ปืน@@ 608
พลังงาน@@ 608
ภูมิภาค@@ 608
สหภาพ@@ 608
돈 608
왜@@ 608
째 608
te@@ 607
앙@@ 607
둔 606
상에 606
십 606
아니면 606
전문@@ 606
체가 606
60 605
คุ@@ 605
โรงเรียน 605
과학@@ 605
나라 605
로의 605
싫@@ 605
있으면 605
희 605
นมัน@@ 604
าคน@@ 604
โกรธ@@ 604
달라@@ 604
먼 604
การแข 603
เกษตร@@ 603
받는 603
ธ 602
สมบูรณ 602
สำรวจ@@ 602
ภาพของ@@ 601
าของเขา@@ 601
늦@@ 601
싱@@ 601
얼굴이 601
제대로 601
거리는 600
때까지 600
11 599
นาง@@ 599
ผลกระทบ@@ 599
เราจะ@@ 599
그만 599
인생@@ 599
품을 599
กลับบ 598
กองทัพ@@ 598
ยุ@@ 598
มีความสุข@@ 597
วก 597
างประเทศ 597
모르는 597
웨@@ 597
혈@@ 597
da@@ 596
คืออะไร 596
จนกว 596
วิน@@ 596
เฮ@@ 596
가의 596
격을 596
그래도 596
깊은 596
lo@@ 595
ญ 595
ตกลง@@ 595
มิน@@ 595
ลบ@@ 595
วมมือ@@ 595
สถาน@@ 595
ึ 595
문제는 595
장으로 595
째@@ 595
형태@@ 595
is@@ 593
คา@@ 593
จึงไม 593
ที@@ 593
สิทธิ@@ 593
เขากำลัง@@ 593
『 593
털@@ 593
ชาติ 592
หญิงสาว@@ 592
안의 592
자신을 592
gu@@ 591
บางที@@ 591
ลงใน@@ 591
หร@@ 591
หายใจ@@ 591
론 591
있도록 591
쳤@@ 591
하기로 591
회담@@ 591
นอนว 590
บทบาท@@ 590
ฮ 590
าจะเป 590
나무 590
로운 590
시키는 590
아무@@ 590
이라면 590
ึง@@ 589
และเมื 589
개인@@ 589
내게 589
성공@@ 589
여행@@ 589
자리에 589
작용@@ 589
뇌@@ 588
서도 588
쌍@@ 588
นห@@ 587
รัฐมนตรี@@ 587
สมัย@@ 587
สินค 587
끈@@ 587
벌써 587
아무리 587
ลักษณะ@@ 586
องสาว@@ 586
เราต 586
돼@@ 586
หรือ 585
เดียวที 585
근 585
끝에 585
노력@@ 585
아야 585
하도록 585
19 584
23@@ 584
do 584
าอก@@ 584
ในความเป 584
그것@@ 584
말한다 584
속을 584
สัมพันธ 583
ในอนาคต@@ 583
옮@@ 583
중앙@@ 583
혹@@ 583
매 582
모 582
겪@@ 581
류 581
배우@@ 581
일부 581
하기도 581
าทาง@@ 580
관리@@ 580
국내@@ 580
규모@@ 580
립 580
스는 580
지켜@@ 580
คืน 579
못하는 579
ทรัพย 578
ำและ@@ 578
그녀를 578
널@@ 578
달리 578
뽑@@ 578
시에 578
กลับไป@@ 577
คว 577
สวน@@ 577
สิน@@ 577
가정@@ 577
ดิ 576
ผลัก@@ 576
ออกไป 576
ัว@@ 576
균@@ 576
람@@ 576
멈@@ 576
와의 576
의한 576
ถอน@@ 575
หญิง 575
겠다 575
라이@@ 575
실시@@ 575
언제나 575
อนหน 574
อิ@@ 574
회는 574
วางแผนที 573
โพ@@ 573
격 573
위가 573
이요 573
มาร@@ 572
เรียกร 572
경우@@ 572
나가 572
년이 572
덮@@ 572
미를 572
역사@@ 572
,@@ 571
g 571
การค 571
าช@@ 571
เรียน 571
사실 571
파 571
1년 570
ภาษ@@ 570
แปลก 570
경험@@ 570
도의 570
모른다 570
자들은 570
전의 570
ของพวกเขา 569
ฉันทำ@@ 569
คำตอบ@@ 568
จะเข 568
ยอดเยี 568
계의 568
끌어@@ 568
나지 568
남의 568
디 568
소설@@ 568
shin 567
ลักษณ 567
삶@@ 567
어를 567
전화를 567
도는 566
นับ@@ 565
อี@@ 565
발생@@ 565
태 565
18 564
ความหมาย@@ 564
ตรา@@ 564
ถาม 564
นายกรัฐมนตรี@@ 564
รถยนต 564
ฤดูใบไม 564
ลิ 564
างไม 564
짝 564
포함@@ 564
ผลิ@@ 563
ัด 563
คง@@ 562
วัด@@ 562
หว 562
노래@@ 562
따른 562
먼@@ 562
못했다 562
신을 562
우고 562
보자 561
ทันทีที 560
พวกเขาไม 560
สวยงาม@@ 560
อุปกรณ 560
เคียง@@ 560
된다는 560
어머니@@ 560
80@@ 559
tae@@ 559
คนใน@@ 559
เธอไม 559
ไปสู 559
목 559
섰다 559
인간의 559
첫 559
พันล 558
รูปร 558
วิญญาณ@@ 558
เขาก@@ 558
개를 558
분명@@ 558
쌓@@ 558
중요@@ 558
책 558
x 557
살고 557
성과 557
손으로 557
스가 557
식의 557
자들의 557
ดวง@@ 556
ลา@@ 556
대상@@ 556
코 556
นเวล@@ 555
มีชื 555
านเกิด@@ 555
ึ@@ 555
그런@@ 555
속의 555
이들 555
제의 555
했으나 555
ชัดเจน@@ 554
ประเด 554
วรรณกรรม@@ 554
หวังว 554
거래@@ 554
성에 554
안으로 554
힘을 554
กรีดร 553
ขัดแย 553
นน 553
ืน@@ 553
แตก@@ 553
แน@@ 553
럽@@ 553
100 552
พัฒน@@ 552
สหรัฐอเมริกา@@ 552
เสมอ 552
경기@@ 552
관심을 552
대해서는 552
인터@@ 552
하늘@@ 552
하다가 552
하려는 552
อป@@ 551
께@@ 551
들어가@@ 551
렀@@ 551
밖으로 551
쉽게 551
60@@ 550
ul@@ 550
บริสุทธิ 550
พระเจ 550
วยมือ@@ 550
และน 550
오래 550
장과 550
포 550
13 549
ตัวละคร@@ 549
가리@@ 549
꾼@@ 549
담 549
당의 549
손에 549
ong 548
ชายที 548
ตา 548
นเด 548
ประสิทธิภาพ@@ 548
เลิก@@ 548
ในขณะเดียวกัน@@ 548
ในเรื 548
들려@@ 548
물의 548
외 548
츠@@ 548
-suk 547
ทุ 547
고려@@ 547
숭@@ 547
않다 547
프로그램@@ 547
คุก@@ 546
หลายครั 546
으로@@ 546
บุคคลที 545
าของ 545
랜@@ 545
만은 545
어머니가 545
컴퓨터@@ 545
각각 544
공동@@ 544
깊@@ 544
분위@@ 544
이지만 544
전망@@ 544
혹은 544
ปกป 543
สหรัฐฯ@@ 543
어려운 543
이들은 543
ฟุตบอล@@ 542
อัตรา@@ 542
과정@@ 542
롭@@ 542
성은 542
위하여 542
쾌@@ 542
2.@@ 541
27@@ 541
yang 541
ขวด@@ 541
เว 541
것입니다 541
그저 541
뒤에 541
참여@@ 541
ชายหนุ 540
ยอด@@ 540
สถานะ@@ 540
านข 540
레 540
률@@ 540
믄 540
นธรรม@@ 539
และได 539
결코 539
겼다 539
받았@@ 539
아가@@ 539
율@@ 539
มีผู 538
รัก 538
อีกต 538
바다@@ 538
에선 538
표를 538
jae@@ 537
me@@ 537
ความร 537
จะใช 537
องเพลง@@ 537
โรงงาน@@ 537
겄@@ 537
떠올@@ 537
쓰는 537
지방@@ 537
แนวโน 536
량 536
말았다 536
섞@@ 536
ดา@@ 535
มนุษย@@ 535
หวัง@@ 535
างใน@@ 535
해주@@ 535
회사@@ 535
ทางสังคม@@ 534
ภาย@@ 534
랐다 534
얘기를 534
졸@@ 534
ของฉันและ@@ 533
ของเด 533
สง@@ 533
ไซ@@ 533
안에서 533
어져 533
행동@@ 533
มองไปที 532
ศาสนา@@ 532
สงสัย@@ 532
สาข@@ 532
고를 532
보내@@ 532
옷@@ 532
원으로 532
주를 532
후에 532
ภาพที 531
말에 531
상대@@ 531
약을 531
일의 531
있다면 531
ประมาณ@@ 530
มาตรการ@@ 530
รับรู 530
이야@@ 530
정에 530
회가 530
กองกำลัง@@ 529
าล 529
เที 529
แผน@@ 529
공부@@ 529
물에 529
gang@@ 528
ดีและ@@ 528
ลงโทษ@@ 528
않게 528
man@@ 527
ดับ@@ 527
นโดย@@ 527
ฝน@@ 527
โท@@ 527
감이 527
년의 527
정부가 527
정상@@ 527
jin 526
งถูก@@ 526
จะทำให 526
จะอยู 526
ชาวเกาหลี@@ 526
ฎ@@ 526
다르@@ 526
받을 526
여자가 526
제로 526
필요한 526
งหรือ@@ 525
าระ@@ 525
감 525
생각했다 525
아닌가 525
오르@@ 525
하루 525
행복@@ 525
cheon 524
นแม 524
อด 524
เอกสาร@@ 524
และส 524
느냐 524
대통령 524
마지막 524
버린 524
션@@ 524
ยุโรป@@ 523
าเขาไม 523
웅@@ 523
찾아 523
กระโดด@@ 522
ซึง@@ 522
ติดอยู 522
นำเสนอ@@ 522
불러@@ 522
빨리 522
사태@@ 522
아버지가 522
งเสริม@@ 521
บุ@@ 521
ัก 521
เผชิญหน 521
국은 521
말이다 521
차례@@ 521
80 520
ความจริง@@ 520
คำที 520
านัก@@ 520
낳@@ 520
적은 520
하시@@ 520
นผล@@ 519
อมา@@ 519
빠져@@ 519
ca@@ 518
nam@@ 518
กระตุ 518
ดั 518
그만@@ 518
문제 518
보이지 518
시장 518
รองเท 517
านอาหาร@@ 517
국제 517
기울@@ 517
를@@ 517
지원@@ 517
hee 516
คลื 516
อม 516
ออกแบบ@@ 516
อเธอ@@ 516
곧@@ 516
어린 516
트를 516
จักร@@ 515
ภรรยา@@ 515
วงเวล@@ 515
สิทธิ 515
าของการ@@ 515
이로 515
ชี@@ 514
มัธยม@@ 514
สำเร 514
จับมือ@@ 513
พูดอย 513
ุด 513
ไฟฟ 513
선생@@ 513
ชนิด@@ 512
ชีวิตที 512
ซาน@@ 512
นำไปสู 512
พืช@@ 512
เสริม@@ 512
불안@@ 512
알았@@ 512
집에서 512
희망@@ 512
ขณะ@@ 511
คิด 511
าวอีกนัยหนึ 511
าอย 511
เวที@@ 511
자주 511
ปริมาณ@@ 510
ิยม@@ 510
멸@@ 510
모를 510
-soo 509
70 509
지로 509
촌@@ 509
100@@ 508
ti@@ 508
จมูก@@ 508
ยุน@@ 508
องน 508
าใช 508
ิท@@ 508
기와 508
벗어@@ 508
처 508
pe@@ 507
ความจริงที 507
ความมั 507
นดิน@@ 507
มนี 507
าแม 507
และต 507
버렸다 507
복 507
열 507
탐@@ 507
ซัก@@ 506
นาที 506
พอ@@ 506
눈 506
저녁@@ 506
na@@ 505
oo 505
ขบวนการ@@ 505
것인가 505
론을 505
롭게 505
며@@ 505
병 505
분을 505
차지@@ 505
ของเกาหลีเหนือ@@ 504
과연 504
데도 504
딱@@ 504
럼@@ 504
부담@@ 504
흘러@@ 504
ของรัฐ@@ 503
ทะ@@ 503
ทีละ@@ 503
결과 503
소련@@ 503
솔@@ 503
자금@@ 503
지역 503
화의 503
26@@ 502
ชายคนนั 502
ตะโก@@ 502
ระบบการ@@ 502
วิทยา@@ 502
อาศัย@@ 502
곳에서 502
꼴@@ 502
와는 502
재미@@ 502
70@@ 501
pa@@ 501
ทาง 501
ลูกค 501
วนที 501
เอง 501
나라의 501
냈@@ 501
쳐다@@ 501
โน@@ 500
당신@@ 500
보다도 500
쁘@@ 500
자동@@ 500
ถุง@@ 499
ประม@@ 499
มีเพียง@@ 499
ยังเป 499
วง 499
อร@@ 499
เงื 499
비해 499
지와 499
ฉันสามารถ@@ 498
ญาณ@@ 498
นข 498
พูดคุย@@ 498
เง@@ 498
ไปทาง@@ 498
쇼@@ 498
아마 498
흑@@ 498
ชำระ@@ 497
อหา@@ 497
อิรัก@@ 497
เทศกาล@@ 497
결 497
스타@@ 497
정치 497
สำคัญที 496
าถ 496
โย@@ 496
된@@ 496
씨를 496
으로서 496
ปู 495
ภ@@ 495
เฮ 495
ในเวลานี 495
∼ 495
찬 495
กฎ@@ 494
ดอก@@ 494
อไม 494
개념@@ 494
남편@@ 494
내리@@ 494
부에 494
뿐이다 494
지금까지 494
판을 494
ชอน@@ 493
ทรง@@ 493
มหาวิทยาลัย 493
ฤดูร 493
no@@ 492
ye@@ 492
yeon 492
อันดับ@@ 492
바람에 492
won@@ 491
จินตนาการ@@ 491
ถอด@@ 491
ทราบ@@ 491
녀 491
항상 491
di@@ 490
ผิดพลาด@@ 490
ฟัน@@ 490
단체@@ 490
맺@@ 490
반드시 490
26 489
ถึงการ@@ 489
สะท 489
สำนัก@@ 489
ในปัจจุบัน@@ 489
ขอบคุณ@@ 488
จริงๆ 488
ภาระ@@ 488
สมัยใหม 488
สูงสุด@@ 488
느껴@@ 488
오고 488
ชัดเจน 487
ทำอย 487
ประธานาธิบดี 487
มน 487
สูง 487
าส 487
끌@@ 487
령 487
벼@@ 487
센@@ 487
철 487
0.@@ 486
กำจัด@@ 486
วมกัน@@ 486
องมอง@@ 486
교수@@ 486
막 486
현대 486
um@@ 485
คลุม@@ 485
จะไป@@ 485
วงเวลาที 485
หลายคน@@ 485
เตือน@@ 485
군요 485
른다 485
비는 485
지적@@ 485
컴퓨터 485
กำไร@@ 484
ตีพิมพ 484
ตุ@@ 484
ยาย@@ 484
อยกว 484
ือน@@ 484
구석@@ 484
끔@@ 484
르 484
말할 484
시절@@ 484
했으며 484
sam@@ 483
จนกระทั 483
ทรมาน@@ 483
หล 483
แทน@@ 483
누군@@ 483
맨@@ 483
아무런 483
yang@@ 482
ของโลก@@ 482
ซอก@@ 482
เขาร@@ 482
랐@@ 482
흔들@@ 482
ทักษะ@@ 481
หลากหลาย@@ 481
าสิ 481
댁@@ 481
번째 481
스크@@ 481
영향을 481
คุณรู 480
ทน@@ 480
บิด@@ 480
ยากลำบาก@@ 480
อสาร@@ 480
▶ 480
관을 480
대통령의 480
법을 480
어머니의 480
억 480
연한 480
청소@@ 480
ประธานาธิบดีคิม@@ 479
ประหลาดใจ@@ 479
อบอุ 479
อผู 479
าเมื 479
เดือน 479
เทศ@@ 479
โป@@ 479
과정에서 479
어쩌면 479
ทดสอบ@@ 478
ในเกาหลี@@ 478
난다 478
떠나@@ 478
생활을 478
실로 478
여러@@ 478
예상@@ 478
정의 478
지난해 478
le 477
ขโมย@@ 477
ดูด@@ 477
นไปที 477
บางสิ 477
าของฉัน@@ 477
เอ 477
교육 477
독 477
처음@@ 477
할머니@@ 477
นวนิยาย@@ 476
บริ@@ 476
ยังคงอยู 476
วยเสียง@@ 476
ศีรษะ@@ 476
หม 476
เดิม@@ 476
조차 476
환경@@ 476
ta@@ 475
ผิด 475
พัด@@ 475
อุบัติเหตุ@@ 475
거리며 475
지난@@ 475
shin@@ 474
ณี@@ 474
บา@@ 474
ปีนี 474
พัง@@ 474
ภา@@ 474
มาตรฐาน@@ 474
ละลาย@@ 474
หนัง@@ 474
เชี 474
โจ@@ 474
李@@ 474
그들이 474
그리 474
려면 474
사람들의 474
싶었다 474
잡아@@ 474
17 473
ตน@@ 473
นพื 473
นี@@ 473
หาร@@ 473
เกิดอะไรขึ 473
껏 473
신의 473
엄마@@ 473
인다 473
ขยะ@@ 472
หญ 472
먹을 472
밭@@ 472
저작@@ 472
제공@@ 472
환 472
회에 472
21 471
ซิ@@ 471
มากมาย 471
ศิลปิน@@ 471
างชาติ@@ 471
แบ@@ 471
닫@@ 471
보면서 471
자본@@ 471
졸업@@ 471
쯤@@ 471
yeo@@ 470
กร 470
ขอบ@@ 470
ความสามารถ@@ 470
รด@@ 470
ราชวงศ 470
또@@ 470
왼@@ 470
있어야 470
เกือบ@@ 469
게도 469
쫓@@ 469
การเลือกตั 468
ัญ@@ 468
างนี 468
락 468
아버@@ 468
엔@@ 468
오지 468
입은 468
hye@@ 467
นฉันก 467
นสัญ@@ 467
ือง@@ 467
가로@@ 467
둔@@ 467
아무도 467
쩍 467
침을 467
ขัด@@ 466
ลงทุ@@ 466
ลงทุน@@ 466
วัตถุประสงค 466
วิธีที 466
สล@@ 466
หลบหนี@@ 466
겨우 466
놈 466
말이@@ 466
북 466
신이 466
이처럼 466
처리@@ 466
ชายของฉัน@@ 465
นเคย@@ 465
ยกเลิก@@ 465
สมุด@@ 465
리라 465
정은 465
지나 465
90@@ 464
การศึกษ@@ 464
งออก@@ 464
พันธุ 464
ามาก@@ 464
ิว@@ 464
ไปแล 464
나누@@ 464
놈이 464
상상@@ 464
자기가 464
자와 464
seong@@ 463
ประท 463
ผล 463
ผิดปกติ@@ 463
วัสดุ@@ 463
เบา 463
แรก 463
적이고 463
했습니다 463
확실@@ 463
จุน@@ 462
ฏ@@ 462
ทาน@@ 462
ยกเว 462
าดู@@ 462
ามันจะ@@ 462
าะ@@ 462
เมษ@@ 462
구의 462
정확@@ 462
the 461
กษัตริย 461
นัม@@ 461
มานาน@@ 461
วนตัว@@ 461
ำที 461
내용을 461
렬@@ 461
바닥@@ 461
스러운 461
위해서는 461
죽은 461
하여@@ 461
ri 460
ควรจะ@@ 460
คอ@@ 460
니가 460
때가 460
만드는 460
숨을 460
씩@@ 460
กระดูก@@ 459
ลดลง 459
แพ@@ 459
얼마 459
자에 459
햇@@ 459
2년 458
ยึด@@ 458
สุดใน@@ 458
หนังสือเล 458
อเสียง@@ 458
าสอง@@ 458
เกินไป@@ 458
언제@@ 458
월 458
중의 458
집어@@ 458
채린@@ 458
한다@@ 458
us@@ 457
กระตือรือร 457
คำพูดของ@@ 457
นอนหลับ@@ 457
ปก@@ 457
หายไป 457
낭@@ 457
잖아 457
주변@@ 457
틈@@ 457
험 457
형의 457
nam 456
คาดหวัง@@ 456
รัฐมนตรีว 456
สำ@@ 456
หลักการ@@ 456
องมี@@ 456
เทคนิค@@ 456
가며 456
문에 456
생을 456
시험@@ 456
일이다 456
주가 456
ฉันไป@@ 455
รอด@@ 455
ายเป 455
าสถ@@ 455
리로 455
미래@@ 455
위는 455
일단 455
있어@@ 455
28@@ 454
กี@@ 454
ชาย 454
ลำดับ@@ 454
닦@@ 454
전시@@ 454
ยุค 453
างว 453
าจะมี@@ 453
โซล 453
새끼@@ 453
저는 453
흙@@ 453
กิ@@ 452
สามารถเข 452
อนแ@@ 452
ูป@@ 452
대고 452
방으로 452
살아 452
선이 452
우려@@ 452
이기도 452
กีฬ@@ 451
เสียใจ@@ 451
แปด@@ 451
부족@@ 451
잎@@ 451
งเน 450
งแล 450
สามารถทำ@@ 450
สึกเหมือน@@ 450
างความ@@ 450
และแม 450
ในท 450
때의 450
베이@@ 450
으니까 450
중인 450
กิจการ@@ 449
ธรรมด@@ 449
บอล@@ 449
อมอง@@ 449
าคม 449
เสรี@@ 449
แพ 449
달러@@ 449
들어가 449
많다 449
무를 449
es 448
อล 448
ออกอากาศ@@ 448
년을 448
스럽@@ 448
이미@@ 448
탕 448
สติ@@ 447
อีก 447
านล 447
도시@@ 447
아래 447
아버지의 447
45 446
คุณกำลัง@@ 446
ทุกวันนี 446
เปรียบเทียบ@@ 446
ใคร 446
그렇지 446
기까지 446
둘 446
호를 446
ตามการ@@ 445
พบกัน@@ 445
อตั 445
านใน@@ 445
국이 445
주지 445
23 444
ราช@@ 444
านหนึ 444
เรา 444
และร 444
소리는 444
일으@@ 444
형을 444
จะเห 443
จุ@@ 443
ทุกวัน@@ 443
ภาษาอังกฤษ@@ 443
วา@@ 443
วิท@@ 443
าวัน@@ 443
าศ@@ 443
배를 443
보험@@ 443
살을 443
수한 443
야만 443
으로도 443
จะรู 442
าฉันไม 442
แปล@@ 442
각종 442
내어 442
더라도 442
어지는 442
eo@@ 441
ตัวอักษร@@ 441
าบ@@ 441
าห 441
เรียนที 441
เสียหาย@@ 441
ในอดีต@@ 441
검토@@ 441
것이라는 441
그러면 441
낯@@ 441
뒤로 441
에게서 441
지게 441
탓@@ 441
ทอด@@ 440
นเขาก 440
วยงาน@@ 440
다양한 440
사회의 440
삭@@ 440
여기서 440
오전 440
hw@@ 439
wo@@ 439
หลุม@@ 439
อห@@ 439
อิสระ@@ 439
แมน@@ 439
ในตอนท 439
밝혀@@ 439
성격@@ 439
좋다 439
지하@@ 439
k-@@ 438
หมุน@@ 438
และใช 438
곳 438
드를 438
시각@@ 438
오른@@ 438
요즘 438
자리에서 438
험@@ 438
จะมีการ@@ 437
ดูที 437
พอที 437
วงหน 437
สำคัญ 437
แรกที 437
ในเมือง@@ 437
《 437
구가 437
끓@@ 437
마시@@ 437
분이 437
여자 437
일도 437
지어 437
im 436
ความต 436
นัด@@ 436
บุหรี 436
ยาง@@ 436
ยุติธรรม@@ 436
ัย 436
เสม@@ 436
대하여 436
테이@@ 436
ทิศ@@ 435
นบ 435
ปลูก@@ 435
มีที 435
โบราณ@@ 435
간을 435
관이 435
너는 435
도착@@ 435
룩@@ 435
른@@ 435
몸이 435
변화@@ 435
셈@@ 435
여자는 435
턱@@ 435
ครอบคลุม@@ 434
จร@@ 434
남은 434
닿@@ 434
못해 434
받았다 434
즉@@ 434
찰 434
토록 434
กัด@@ 433
กิ 433
กู 433
ชิง@@ 433
ประก@@ 433
แผนการ@@ 433
님은 433
마는 433
만들@@ 433
못할 433
사람들@@ 433
상은 433
아버지 433
안은 433
열고 433
위험@@ 433
งแ@@ 432
ซับซ 432
นถูก@@ 432
สังเกต@@ 432
สีน 432
องทำ@@ 432
긋@@ 432
락을 432
서야 432
엉@@ 432
해가 432
uk 431
ฉันจะไม 431
นอิสระ@@ 431
วัด 431
องว 431
ในตอน@@ 431
권의 431
대통령은 431
병을 431
에만 431
탕@@ 431
29 430
ทุกสิ 430
สภาพแวดล 430
관계를 430
바꾸@@ 430
세상에 430
심이 430
제작@@ 430
중심@@ 430
지금은 430
นเรียน@@ 429
ผลประโยชน 429
ยวชาญ@@ 429
ฤดูหนาว@@ 429
อนไข@@ 429
ายน 429
ในใจ@@ 429
당장 429
름을 429
미가 429
스런 429
여기 429
ce 428
ของพ 428
ภาวะ@@ 428
อัตราการ@@ 428
เคร@@ 428
เพศ@@ 428
봄@@ 428
삼 428
역할을 428
지키@@ 428
ha 427
คุณอาจ@@ 427
รายได 427
อนาคต@@ 427
ในทางกลับกัน@@ 427
명한 427
숲@@ 427
읍@@ 427
f 426
ทุกครั 426
นอน 426
นิทรรศการ@@ 426
าพวก@@ 426
เหนือ 426
놓았다 426
돌아가@@ 426
물어@@ 426
빚@@ 426
심한 426
얼마@@ 426
นเจ 425
พวกเขาก 425
สรุป@@ 425
เหนื 425
แข@@ 425
โครงการ@@ 425
건강@@ 425
도대체 425
된다고 425
말하는 425
사와 425
세가 425
으므로 425
희는 425
การณ 424
นเวลา 424
เกินไป 424
그날 424
따르면 424
마을@@ 424
보이고 424
활용@@ 424
회에서 424
eon 423
ตุ 423
วันหนึ 423
빛이 423
예 423
판매@@ 423
ji 422
กลาง 422
คนและ@@ 422
งเศส@@ 422
ตระ@@ 422
าหรือ@@ 422
เขาต 422
땀@@ 422
에게@@ 422
이것은 422
최고@@ 422
히는 422
ประเทศที 421
ยะ@@ 421
เซีย@@ 421
구멍@@ 421
기획@@ 421
날이 421
눌@@ 421
말도 421
이름을 421
태어@@ 421
펴@@ 421
14일 420
im@@ 420
ขุด@@ 420
ภายนอก@@ 420
รวมตัวกัน@@ 420
าเพื 420
ือก@@ 420
เค 420
แจ@@ 420
까지는 420
나면 420
나왔@@ 420
바람이 420
키 420
필요가 420
ยอม@@ 419
หนุ 419
랍@@ 419
예정@@ 419
위에서 419
일이었다 419
주인아저@@ 419
흡@@ 419
500 418
cheong@@ 418
นฟู@@ 418
บบ@@ 418
โดดเด 418
그걸 418
빙@@ 418
소에 418
쏟아@@ 418
았던 418
คัง@@ 417
ติดตั 417
นเวลานาน@@ 417
ปีก 417
เหตุ@@ 417
가로 417
만나 417
반대@@ 417
예를 417
있는@@ 417
특별@@ 417
학교에 417
การใช 416
ทอง@@ 416
ศ 416
ึก 416
เชิญ@@ 416
แก@@ 416
โง 416
건너@@ 416
글을 416
릴@@ 416
밟@@ 416
소가 416
주민@@ 416
ดุ@@ 415
ปัญหาที 415
ราบ@@ 415
อนุ@@ 415
างเปล 415
ในชีวิต@@ 415
만약 415
버리고 415
비슷한 415
입고 415
존 415
jeon 414
ko@@ 414
พิธี@@ 414
พิษ@@ 414
อิทธิพล@@ 414
당이 414
유럽@@ 414
콜@@ 414
하준은 414
향 414
กาแฟ@@ 413
ตัวแทน@@ 413
ถนน 413
ทักทาย@@ 413
บรร@@ 413
ละเมิด@@ 413
될@@ 413
불구하고 413
서방@@ 413
해요 413
흉@@ 413
ci@@ 412
วยกัน@@ 412
องให 412
나게 412
단계@@ 412
데리고 412
먹는 412
밥을 412
버리@@ 412
빈 412
질이 412
층 412
การต 411
ถัดไป@@ 411
ลงบน@@ 411
และฉันก 411
โทษ@@ 411
두려@@ 411
무엇을 411
문득 411
소비@@ 411
직원@@ 411
che@@ 410
w 410
กันยาย@@ 410
คำแนะนำ@@ 410
งเพื 410
ลุกขึ 410
างเงียบ 410
เขีย@@ 410
ในตอนเช 410
깨끗@@ 410
동을 410
때에 410
리아@@ 410
바닥에 410
차례 410
통을 410
el@@ 409
เนิน@@ 409
그녀@@ 409
도에 409
뜻을 409
매일 409
물러@@ 409
빗@@ 409
설을 409
안이 409
한국의 409
3.@@ 408
yo@@ 408
จู 408
ฉบับ@@ 408
ฉันอยาก@@ 408
อยๆ@@ 408
เตียง@@ 408
받아들@@ 408
복을 408
비판@@ 408
확대@@ 408
du@@ 407
นทางการ@@ 407
สัญญา@@ 407
สูบบุหรี 407
ำตา@@ 407
끌고 407
머리 407
습 407
아무것도 407
이상의 407
3년 406
กลางของ@@ 406
งแวดล 406
จุง@@ 406
ชิ@@ 406
ทำสิ 406
ยาว 406
ลิ@@ 406
사람들 406
즈 406
화장@@ 406
k는 405
up 405
การจัดการ@@ 405
ถูกจับ@@ 405
ทธ@@ 405
มีชีวิต@@ 405
าบ 405
걱정@@ 405
골 405
넓@@ 405
때도 405
때문이었다 405
선수@@ 405
아침 405
인식@@ 405
피를 405
함 405
합의@@ 405
งานของ@@ 404
จีน 404
นักแสดง@@ 404
บรรยาย@@ 404
ผนัง@@ 404
สัญญ@@ 404
เพราะฉัน@@ 404
것이며 404
관계 404
냐고 404
되기 404
조각@@ 404
주머니@@ 404
su 403
ทางวัฒนธรรม@@ 403
ปรัชญ@@ 403
สามารถทำได 403
ออกไปข 403
ุง@@ 403
เติม@@ 403
โดยตรง@@ 403
것에 403
구는 403
시의 403
시킬 403
아요 403
정리@@ 403
토 403
พูดด 402
อฟ@@ 402
เปิดประตู@@ 402
โปร@@ 402
가슴@@ 402
그에게 402
등장@@ 402
만난 402
뿐이었다 402
จัง@@ 401
ปัญหา 401
료를 401
문제에 401
불과@@ 401
생각해 401
제기@@ 401
คนนี 400
นไ@@ 400
มาตร@@ 400
หิมะ@@ 400
าสม@@ 400
เขาย@@ 400
ในปีนี 400
걱@@ 400
군의 400
굳@@ 400
그러니까 400
분명히 400
생긴 400
언론@@ 400
언제 400
올려@@ 400
원에서 400
자세@@ 400
중에서 400
ขี@@ 399
ตล@@ 399
อดู@@ 399
ากลัว@@ 399
างนอก@@ 399
โคร@@ 399
렀다 399
슈@@ 399
완전히 399
학생 399
22 398
4.@@ 398
จด@@ 398
ทำหน 398
ประธาน 398
มีการกล 398
สับสน@@ 398
อเท 398
내에 398
말이야 398
부처@@ 398
선언@@ 398
올해 398
진은 398
활동을 398
งข 397
นพบ@@ 397
สีแดง@@ 397
อยที 397
อาวุธ@@ 397
ในรูปแบบ@@ 397
가슴이 397
국을 397
웃었다 397
이라며 397
이유@@ 397
잖@@ 397
절 397
주요 397
팽@@ 397
해석@@ 397
ทำความสะอาด@@ 396
ประกอบด 396
อมที 396
เงินที 396
글 396
떡@@ 396
보여 396
승 396
시가 396
첨@@ 396
하려고 396
ซุน@@ 395
ดินแด@@ 395
และถูก@@ 395
가격@@ 395
벌 395
빛 395
서가 395
호는 395
man 394
ชายชรา@@ 394
บาล 394
ปกติ 394
วิทย@@ 394
ศพ@@ 394
หัวข 394
ุม@@ 394
เขากล 394
เหง@@ 394
เหมือนกับ@@ 394
강조@@ 394
나갈 394
다니는 394
쌀@@ 394
쓰레@@ 394
잇@@ 394
นเวลา@@ 393
ยื 393
วิชา@@ 393
านบน@@ 393
기본@@ 393
넣고 393
달라고 393
대통령이 393
데서 393
마음 393
미리 393
배가 393
비행@@ 393
스스@@ 393
쓸 393
워서 393
자인 393
4일 392
กรรม 392
ซิล@@ 392
ประสบ@@ 392
ลู@@ 392
วี 392
สหภาพโซเวียต@@ 392
แฟ@@ 392
나갔다 392
새로 392
원칙@@ 392
위해서 392
กังวลเกี 391
กุ@@ 391
นในการ@@ 391
สีดำ@@ 391
แถลง@@ 391
간단@@ 391
나에게 391
라구 391
북한의 391
옷을 391
이러@@ 391
있을까 391
1,@@ 390
5년 390
ir@@ 390
ตรวจ@@ 390
ราวกับ@@ 390
ริมฝีปาก@@ 390
เยอรมนี@@ 390
곳을 390
단의 390
비롯@@ 390
야지 390
어둠@@ 390
열심히 390
쪽에 390
차가 390
1백 389
การเปลี 389
ทัศนคติ@@ 389
สหรัฐอเมริก@@ 389
기능@@ 389
남자가 389
조선 389
한테@@ 389
งเช 388
มนตรี@@ 388
เขาจะ@@ 388
거부@@ 388
명은 388
모습이 388
병석@@ 388
붕@@ 388
살이 388
아침@@ 388
이게 388
young 387
กรรมการ@@ 387
คม 387
รบ@@ 387
เตะ@@ 387
거예요 387
검은 387
면에 387
목이 387
방에서 387
보기 387
설치@@ 387
외교@@ 387
조심@@ 387
하고는 387
하나가 387
형이 387
คุณเป 386
บาร 386
สังเกตเห 386
สามารถใช 386
따로 386
싼 386
제는 386
켜 386
ขอโทษ@@ 385
จำได 385
ประตู 385
ายน@@ 385
것만 385
경우가 385
곰@@ 385
놀라@@ 385
뼈@@ 385
역을 385
외에 385
콩@@ 385
하기@@ 385
งเมื 384
พูดกับ@@ 384
ยมชม@@ 384
อพวกเขา@@ 384
อึน@@ 384
เมล 384
และเข 384
대한@@ 384
리아 384
불 384
쇄@@ 384
시장@@ 384
아들 384
은행 384
좀더 384
ทูต@@ 383
ลัทธิ@@ 383
สาระ@@ 383
อใน@@ 383
ในกรณี@@ 383
검찰@@ 383
네는 383
아니고 383
운동을 383
인물@@ 383
전이 383
조를 383
-gun 382
jeong 382
ตะโกน@@ 382
ปะ@@ 382
พรุ 382
สาเหตุ@@ 382
องใช 382
ื@@ 382
겉@@ 382
리와 382
부탁@@ 382
실제로 382
없지 382
ปลา@@ 381
ผลการ@@ 381
มองหา@@ 381
างกัน 381
강화@@ 381
되어야 381
든다 381
마당@@ 381
마주@@ 381
마찬가지@@ 381
순 381
아이들이 381
알게 381
일로 381
총 381
24일 380
cho@@ 380
ความคิดที 380
สมัชชาแห 380
สวย@@ 380
สห@@ 380
ัป@@ 380
เธอก@@ 380
겁니다 380
국가 380
등은 380
류의 380
어머니 380
칙@@ 380
อาหาร 379
เหมาะ@@ 379
ในระยะ@@ 379
가면 379
곁@@ 379
릿@@ 379
머니 379
이제는 379
짐작@@ 379
청년@@ 379
san@@ 378
ชายคนหนึ 378
ประวัติ@@ 378
ระบุ@@ 378
ในแ@@ 378
개가 378
까닭@@ 378
살펴@@ 378
조건@@ 378
춤@@ 378
하겠다고 378
행사@@ 378
min@@ 377
ซาง@@ 377
ดึงดูด@@ 377
ตอบโต 377
ยาม@@ 377
อาวุโส@@ 377
เงียบ 377
ในปี@@ 377
ในเวลาเดียวกัน@@ 377
ไฟ 377
관심@@ 377
군사@@ 377
내밀@@ 377
녀석@@ 377
느냐고 377
던가 377
동생@@ 377
유리@@ 377
인들이 377
chaerin 376
tv@@ 376
การเงิน@@ 376
ติ 376
นึกถึง@@ 376
ปั 376
ลาก@@ 376
ากร@@ 376
เซ 376
ในครอบครัว@@ 376
경기 376
그러한 376
넌 376
데는 376
약간 376
업체@@ 376
lu@@ 375
ความแตกต 375
นำเข 375
ปรากฏการณ 375
เพียงแค 375
เหย@@ 375
담배를 375
무서@@ 375
여서 375
여자의 375
였던 375
충분히 375
탄 375
해진 375
คอน@@ 374
นจะ@@ 374
ผี@@ 374
มองเห 374
มีปัญหา@@ 374
ยม 374
รถบัส@@ 374
รางวัล@@ 374
ศตวรรษที 374
สองครั 374
สาธารณ@@ 374
อค 374
องเป 374
โบ@@ 374
ในฐานะผู 374
ไปตาม@@ 374
까지도 374
반면 374
사람도 374
시다 374
옆에 374
오랜 374
쪽에서 374
byeong@@ 373
ของเธอและ@@ 373
งออกเป 373
งาม@@ 373
นาน 373
วิดีโอ@@ 373
ออกจากบ 373
าเรา@@ 373
거든 373
나가는 373
년대 373
달아@@ 373
부정@@ 373
뿐만 373
안고 373
한번@@ 373
90 372
ของฉันที 372
นช@@ 372
ปฏิ@@ 372
สะ@@ 372
อตัว@@ 372
โรงแรม@@ 372
내지 372
낸다 372
드리@@ 372
언어@@ 372
응 372
คนเดียว 371
ตาที 371
รสชาติ@@ 371
อกับ@@ 371
ามันไม 371
าลูก@@ 371
เลื 371
교과@@ 371
숫@@ 371
시키고 371
이들이 371
점점 371
คุณสมบัติ@@ 370
รี 370
วยกัน 370
สว 370
อนไ@@ 370
อเป 370
곳이 370
그렇다면 370
뚫@@ 370
만의 370
범 370
벤@@ 370
부인@@ 370
운전@@ 370
추고 370
치지 370
환경 370
of 369
yeong 369
คริส@@ 369
ความสำคัญ@@ 369
ประทับใจ@@ 369
มาและ@@ 369
เลข@@ 369
เหงื 369
ในร 369
그러므로 369
아름다운 369
이도 369
자식@@ 369
집이 369
혹시 369
8년 368
จัดการกับ@@ 368
จากผู 368
ตอบสนอง@@ 368
ติก@@ 368
นาฬิก@@ 368
ฝัง@@ 368
ในเวลา@@ 368
님의 368
되어@@ 368
들어갔다 368
듬@@ 368
시대@@ 368
아저@@ 368
예리는 368
주인공@@ 368
해지@@ 368
suhye 367
v 367
คิดเกี 367
ๆ@@ 367
공격@@ 367
빠져 367
수입@@ 367
이유는 367
잔을 367
전통@@ 367
제외@@ 367
증을 367
21@@ 366
yeo 366
ประการ@@ 366
พิจารณ@@ 366
าข 366
겠지만 366
구체@@ 366
약속@@ 366
학을 366
화는 366
chang@@ 365
บริโภค@@ 365
ปลดปล 365
มของ@@ 365
รั 365
รับ 365
기자@@ 365
든@@ 365
마침내 365
붉은 365
영화를 365
컨@@ 365
bong@@ 364
งตัว@@ 364
มเหลว@@ 364
วยเหตุนี 364
สัม@@ 364
สายตาของ@@ 364
ากระ@@ 364
เดือนที 364
ในการแข 364
것일까 364
깨달@@ 364
뚱@@ 364
림 364
모두@@ 364
바뀌@@ 364
축 364
ation 363
sun@@ 363
ปีและ@@ 363
พิเศษ 363
โลกที 363
โอน@@ 363
ในมือ@@ 363
간이 363
건설@@ 363
겨울@@ 363
논의@@ 363
당은 363
seo 362
บาดเจ 362
อยและ@@ 362
เวียน@@ 362
แอลกอฮอล 362
들로 362
뭇@@ 362
보통 362
빛을 362
생활 362
조금@@ 362
종합@@ 362
줄을 362
증가@@ 362
하려 362
ทุกที 361
ปรา@@ 361
มีความหมาย@@ 361
รัสเซีย@@ 361
วม 361
สาบ@@ 361
อป 361
แบบนั 361
다면서 361
산에 361
생각하고 361
셋@@ 361
점에 361
31 360
จักรว@@ 360
ดอลลาร 360
อบ 360
ในขณะนี 360
ได@@ 360
가까@@ 360
가득 360
개선@@ 360
거를 360
그룹@@ 360
대단@@ 360
jeong@@ 359
งผู 359
ถัดจาก@@ 359
ฮาจุน@@ 359
가능성이 359
다음과 359
만일 359
묶@@ 359
서비@@ 359
아이를 359
있었는데 359
점은 359
턴@@ 359
확보@@ 359
cheon@@ 358
ขอบเขต@@ 358
งข@@ 358
งจะ@@ 358
งหมดที 358
ศัตรู@@ 358
หนัก 358
공개@@ 358
마저 358
어지고 358
체로 358
คร 357
งปัน@@ 357
จัดทำ@@ 357
วโม@@ 357
าของเธอ@@ 357
าวลือ@@ 357
เดินทางไป@@ 357
เผา@@ 357
และนัก@@ 357
โน 357
망 357
쪽을 357
측은 357
하나를 357
ความเจ 356
งแรกที 356
นิสัย@@ 356
นเขาจึง@@ 356
ัว 356
างหนัก@@ 356
ียบ@@ 356
แรกของ@@ 356
ไก 356
거기@@ 356
몹시 356
보게 356
상처@@ 356
실에서 356
어울@@ 356
하는@@ 356
8.@@ 355
ยืนยันว 355
ระดม@@ 355
것인@@ 355
들여@@ 355
않는@@ 355
앞서 355
있으나 355
했었다 355
27 354
ju@@ 354
ฉันสงสัยว 354
ทำเช 354
วด 354
อาร@@ 354
างๆ@@ 354
ำหนัก@@ 354
และทำให 354
แวร 354
다리를 354
비밀@@ 354
섰@@ 354
수용@@ 354
흰 354
ชายและ@@ 353
ปัจจุบัน 353
สงสัยว 353
หลักสูตร@@ 353
가끔 353
다행@@ 353
뒤를 353
력의 353
선생님 353
포기@@ 353
ของญี 352
ชัดเจนว 352
ตระหนัก@@ 352
ายกับ@@ 352
ในกรุงโซล@@ 352
개월 352
날아@@ 352
단이 352
사고 352
자랑@@ 352
장기@@ 352
전달@@ 352
참석@@ 352
7년 351
จิตสำนึก@@ 351
นอกจาก@@ 351
ภูเขา 351
วนของ@@ 351
สต 351
ุล@@ 351
ใ@@ 351
ในพื 351
국민 351
김영@@ 351
방법을 351
비교@@ 351
손가락@@ 351
솟@@ 351
앉은 351
중심으로 351
행을 351
ขวัญ@@ 350
ของฉันก 350
ดำเนินต 350
อของเขา@@ 350
าถึง@@ 350
ามือ@@ 350
โฆษณา@@ 350
◇ 350
개발 350
누워 350
버렸@@ 350
산이 350
이라크 350
정치적 350
짓 350
힘이 350
ne 349
ขนส 349
ครบ@@ 349
ความปรารถ@@ 349
คอมมิวนิสต 349
บุก@@ 349
ประการที 349
ปรัชญา@@ 349
ลงและ@@ 349
ายัง@@ 349
โดยมี@@ 349
같아 349
드라@@ 349
멍@@ 349
시간에 349
에게도 349
입에 349
첩@@ 349
통한 349
프랑@@ 349
งว 348
ตู 348
นหรือ@@ 348
วยน 348
หลังจากได 348
แผ@@ 348
곱@@ 348
나타났다 348
방문@@ 348
쉽@@ 348
아이가 348
이론@@ 348
이후@@ 348
hong 347
กาย@@ 347
คำว 347
งทาง@@ 347
งบน@@ 347
ฉันแค 347
ชัน@@ 347
ชายฝั 347
ทำจาก@@ 347
บำ@@ 347
บุคลิก@@ 347
ปู@@ 347
รวมถึง 347
데다 347
돋@@ 347
련 347
마땅@@ 347
말하고 347
받지 347
애를 347
자기의 347
튀@@ 347
하면서도 347
tr@@ 346
ทดลอง@@ 346
นห 346
ปรากฏขึ 346
고향@@ 346
교통@@ 346
로가 346
붙어 346
사실은 346
종교@@ 346
챙@@ 346
-m@@ 345
6.@@ 345
สำหรับ 345
าจะไม 345
เดี 345
깃@@ 345
물은 345
시고 345
열린 345
일이@@ 345
저녁 345
커다란 345
틀림@@ 345
협의@@ 345
ขับรถ@@ 344
ตกแต 344
นฐานของ@@ 344
นสอง@@ 344
รุ@@ 344
านหนังสือ@@ 344
เลีย@@ 344
가만히 344
놈의 344
분의 344
소의 344
신청@@ 344
아예 344
어쩌@@ 344
ของพรรค@@ 343
งใจที 343
อต@@ 343
อนอื 343
างมี@@ 343
เสี 343
띠@@ 343
름이 343
은데 343
퉁@@ 343
กรุง@@ 342
งฉัน@@ 342
ทำไม 342
บู@@ 342
ฝึกอบรม@@ 342
มันได 342
มีหลาย@@ 342
าวได 342
และข 342
실에 342
쏘@@ 342
앉았다 342
웃음을 342
케 342
호텔@@ 342
งกำลัง@@ 341
นงาน@@ 341
สดใส@@ 341
ายค 341
ิป@@ 341
เดิม 341
เม 341
거리를 341
계가 341
국에 341
도덕@@ 341
방식@@ 341
변호@@ 341
28 340
5.@@ 340
us 340
คิดที 340
จำนวน 340
ตีความ@@ 340
ผลักดัน@@ 340
ลูก 340
หิว@@ 340
อุดมการณ 340
อได 340
าซ@@ 340
เมียง@@ 340
방안을 340
방침@@ 340
부동@@ 340
뻔@@ 340
어찌 340
오래@@ 340
일까 340
있을@@ 340
지속@@ 340
ook 339
จิตวิญญาณ@@ 339
ชิด@@ 339
ถัง@@ 339
ผลงาน@@ 339
มันมี@@ 339
ยืด@@ 339
รัง@@ 339
경이 339
공산@@ 339
과정을 339
교육을 339
돈이 339
사랑을 339
아닙@@ 339
young-@@ 338
การเคลื 338
ดังขึ 338
นไปไม 338
ูน@@ 338
띄@@ 338
로서는 338
실은 338
연결@@ 338
요청@@ 338
의심@@ 338
일부터 338
잔 338
튼@@ 338
um 337
งนั 337
ถูกบังคับให 337
รายงานว 337
แค@@ 337
귀를 337
마디 337
만큼@@ 337
변 337
수출@@ 337
어른@@ 337
연극@@ 337
연히 337
주었@@ 337
คำนวณ@@ 336
ตก 336
นสู@@ 336
นแล 336
พระราชบัญญัติ@@ 336
าขึ 336
างมาก 336
렌@@ 336
서의 336
소리로 336
신용@@ 336
점이다 336
제에 336
효철@@ 336
히고 336
tv 335
กรุงโซล 335
กะ@@ 335
ควรได 335
ชีว@@ 335
นไปบน@@ 335
รว@@ 335
วันหยุด@@ 335
ามกลาง@@ 335
าเขาเป 335
าเช 335
ิร 335
แช 335
ในสหรัฐอเมริก@@ 335
무너@@ 335
뭉@@ 335
아니었@@ 335
적극@@ 335
งสาม@@ 334
ตู@@ 334
ทำงาน 334
นถึง@@ 334
สอดคล 334
าหลาย@@ 334
เกล@@ 334
เสียง 334
가요 334
고통@@ 334
기분@@ 334
떨어진 334
무리@@ 334
씨와 334
의원 334
회사 334
mp@@ 333
กลางคืน@@ 333
กำเนิด@@ 333
ควัน@@ 333
ชอย@@ 333
ซอน@@ 333
นช 333
นเอก@@ 333
ปีนขึ 333
รับเงิน@@ 333
หัวเราะ 333
หากไม 333
าเขากำลัง@@ 333
เทพ@@ 333
대해서 333
비록 333
수록 333
아이는 333
져서 333
지배@@ 333
형은 333
baek@@ 332
ke@@ 332
กอด@@ 332
ครัว@@ 332
ทำได 332
ธิการ@@ 332
พย@@ 332
วางไว 332
หัก@@ 332
อนุญาตให 332
อเสนอ@@ 332
าคุณไม 332
ในการประชุม@@ 332
근무@@ 332
리게 332
사로 332
시대의 332
잠을 332
짚@@ 332
การผลิต@@ 331
ตกอยู 331
ถั 331
องบิน@@ 331
าะ 331
ในน 331
남북 331
방향@@ 331
아파@@ 331
옳@@ 331
잡아 331
죽음@@ 331
줘@@ 331
처음으로 331
현은 331
การแสดง@@ 330
ชีวิตอยู 330
นเธอ@@ 330
ปฏิวัติ@@ 330
มีต 330
วางแผ@@ 330
เมนต 330
เหรียญ@@ 330
가능한 330
그려@@ 330
맞는 330
벨@@ 330
시오 330
엎@@ 330
할까 330
197@@ 329
yong@@ 329
ของตัวเอง@@ 329
นให 329
ปรับโครงสร 329
สัญญาณ@@ 329
าเร@@ 329
โรงละคร@@ 329
롱@@ 329
비로소 329
월드컵 329
중얼@@ 329
중에는 329
kw@@ 328
กางเก@@ 328
งเสริมการ@@ 328
ตะวันตก 328
ตี 328
ธรรม 328
นรำ@@ 328
ยัน@@ 328
สัมภาษณ 328
เธอย@@ 328
และมอง@@ 328
ไร@@ 328
나서@@ 328
선거 328
움이 328
ja@@ 327
งกับ@@ 327
งเขา@@ 327
ตัวแท@@ 327
นสถ@@ 327
ราก@@ 327
หญิงคนนั 327
อยให 327
านมา 327
ในอนาคต 327
ไฮ@@ 327
가까운 327
들여다@@ 327
등록@@ 327
맑@@ 327
무시@@ 327
부딪@@ 327
사실이 327
안정@@ 327
영향@@ 327
자체@@ 327
지에서 327
하더라도 327
학교를 327
mu@@ 326
young@@ 326
งชาติ 326
ถูกนำ@@ 326
ทราบว 326
หลักฐาน@@ 326
และส@@ 326
ไหม@@ 326
곡 326
남자 326
단지 326
벽에 326
뻗@@ 326
지섭@@ 326
500@@ 325
งเสียง@@ 325
ลาออก@@ 325
ลี 325
หมายเลข@@ 325
หลง@@ 325
거쳐 325
과를 325
면에서 325
부터@@ 325
어졌다 325
연출@@ 325
이들의 325
한데 325
deok@@ 324
ja 324
งเดียว@@ 324
จะให 324
จึงเป 324
นร 324
มากจน@@ 324
อพาร 324
อีกด 324
ียง 324
ในต 324
공화@@ 324
기어@@ 324
끼 324
너무나 324
말해 324
성장@@ 324
손이 324
않으@@ 324
얼굴에 324
없게 324
오빠@@ 324
이것이 324
함이 324
chosun 323
seonbi 323
vi@@ 323
กลางและ@@ 323
กำแพง@@ 323
ดูเหมือนจะไม 323
นคำ@@ 323
มหาวิทยาลัยแห 323
ลุง@@ 323
สบาย@@ 323
สุดก 323
หลาย 323
อุตสาหกรรมการ@@ 323
ัตว 323
ามีการ@@ 323
ิก 323
แป@@ 323
겼@@ 323
기업 323
느낌@@ 323
면이 323
목소리로 323
아가 323
qu@@ 322
ความขัดแย 322
ติดกับ@@ 322
นิวเคลียร 322
รั@@ 322
기자 322
물고 322
색을 322
손님@@ 322
이유가 322
이트@@ 322
폴@@ 322
했기 322
กฎหมาย 321
นอัน@@ 321
ปรึกษา@@ 321
มก@@ 321
วยให 321
หลอก@@ 321
องเรียน@@ 321
อเมริก@@ 321
าหา@@ 321
และถ 321
▽ 321
끄덕@@ 321
노래를 321
럭@@ 321
미는 321
의사@@ 321
일어나 321
적용@@ 321
กำแพ@@ 320
ดวงอาทิตย 320
ดู 320
ยนต 320
านของ 320
เยาวชน@@ 320
― 320
國@@ 320
겹@@ 320
꼭@@ 320
뚝@@ 320
뭘 320
빼앗@@ 320
사람들을 320
씻@@ 320
아내는 320
않겠@@ 320
였고 320
자꾸 320
팔을 320
ตลก@@ 319
ทัน@@ 319
ผลไม 319
รับรางวัล@@ 319
สถาบันการเงิน@@ 319
อตกลง@@ 319
อส 319
อาจจะ@@ 319
เพลง 319
โทรทัศน 319
ในยุค@@ 319
개월@@ 319
굽@@ 319
나름@@ 319
딱 319
마이@@ 319
연구 319
있다가 319
파악@@ 319
hwa 318
กลม@@ 318
ฉันอยู 318
ดิน 318
นท 318
พฤติกรรม@@ 318
องการให 318
เครือ@@ 318
เดินผ 318
그와 318
매달@@ 318
어졌@@ 318
의미를 318
있는지 318
-hyun 317
7.@@ 317
han 317
hi@@ 317
po 317
seong 317
ฉันและ@@ 317
ดัง 317
ถอย@@ 317
นักข 317
มีนาคม@@ 317
วรรณ@@ 317
ในกรณีของ@@ 317
ในฐานะที 317
강한 317
끄러@@ 317
대상으로 317
록 317
삐@@ 317
아들@@ 317
이어서 317
일본의 317
ter 316
ter@@ 316
yu 316
จอน@@ 316
นพวกเขา@@ 316
มีความสามารถ@@ 316
อาชีพ@@ 316
อุป@@ 316
าทั 316
านวอน 316
고객@@ 316
다녀@@ 316
만원 316
산의 316
수사@@ 316
쓰러@@ 316
이기@@ 316
콘@@ 316
키로 316
홍 316
geum@@ 315
pyeong@@ 315
คุย@@ 315
ภาพวาด@@ 315
มือ 315
าหาก@@ 315
고민@@ 315
그러자 315
그렇다고 315
다섯 315
됨@@ 315
때에는 315
리라는 315
목소리가 315
색이 315
세월@@ 315
일까지 315
텔레비@@ 315
팬@@ 315
표정을 315
cho 314
gwang@@ 314
งกว 314
นเนื 314
ปลอดภัย@@ 314
ยืม@@ 314
รัส@@ 314
วี@@ 314
สาธารณรัฐ@@ 314
อมต 314
อัล@@ 314
างระหว 314
ในโรงเรียน@@ 314
르게 314
먹은 314
부로 314
업무@@ 314
온다 314
욕을 314
웬@@ 314
이제@@ 314
지니@@ 314
ul 313
การทำงาน@@ 313
จม@@ 313
อธิบายว 313
가슴을 313
구경@@ 313
그것도 313
북한이 313
상품@@ 313
시킨 313
썩@@ 313
어리@@ 313
여름@@ 313
있음을 313
항 313
혐@@ 313
bang 312
la 312
ความฝัน@@ 312
งหน 312
ฉันยัง@@ 312
สุขภาพ@@ 312
หาง@@ 312
อังกฤษ@@ 312
โดยผู 312
국회 312
느냐@@ 312
사내@@ 312
세상을 312
시행@@ 312
있어요 312
정도의 312
종이 312
책임을 312
ธรรมชาติ 311
บอกให 311
เจาะ@@ 311
เหมือนกัน 311
แทก@@ 311
ใดที 311
거짓@@ 311
느꼈다 311
다녔@@ 311
돌려@@ 311
땅 311
마음에 311
음식@@ 311
이뤄@@ 311
이었고 311
죽을 311
하겠다는 311
ขวาง@@ 310
ของประธานาธิบดี@@ 310
งปี@@ 310
ฉีก@@ 310
ธัน@@ 310
นความจริงที 310
นลูก@@ 310
บริเวณ@@ 310
วัว@@ 310
สรร@@ 310
หอ@@ 310
가야 310
고요 310
그림 310
대응@@ 310
리기 310
밥 310
있는가 310
재를 310
재판@@ 310
평화@@ 310
22@@ 309
คาร 309
พยักหน 309
วันนั 309
ิง 309
เรียง@@ 309
괜찮@@ 309
기술 309
뚜@@ 309
모두가 309
오르는 309
운동 309
전부터 309
kyung 308
ชน 308
ชายผู 308
ทหาร 308
อภิปราย@@ 308
านาย@@ 308
แขวน@@ 308
뜯@@ 308
손 308
시작한 308
없었던 308
인한 308
카 308
คาบสมุทร@@ 307
งไปยัง@@ 307
ซาก@@ 307
공급@@ 307
길로 307
꼽@@ 307
냥@@ 307
연기@@ 307
이건 307
자료@@ 307
한참 307
ber@@ 306
กระด@@ 306
กวาง@@ 306
คัน@@ 306
จังหวัด@@ 306
ฉลาด@@ 306
ฉันพยายาม@@ 306
ญา@@ 306
ตรรกะ@@ 306
นสถานที 306
นอกเหนือจาก@@ 306
ารัก@@ 306
าโ@@ 306
เผยแพร 306
เพียงพอ@@ 306
โดยเฉพาะ@@ 306
꼼@@ 306
삶의 306
속이 306
실패@@ 306
어깨@@ 306
오를 306
인사를 306
전국 306
하나는 306
seung 305
ครอง@@ 305
ความไม 305
ทันสมัย@@ 305
นหน 305
ปัจจัย@@ 305
ฟุตบอลโลก@@ 305
วงเวลา@@ 305
สะดวก@@ 305
องได 305
าช 305
ิกส 305
것이고 305
규정@@ 305
담당@@ 305
동자승@@ 305
되 305
문화 305
서에 305
십시오 305
일반 305
적절@@ 305
천천히 305
측 305
한나라@@ 305
คุณภาพ@@ 304
งตั 304
ทง@@ 304
ปฏิกิริ@@ 304
ภาคภูมิใจ@@ 304
ยธรรม@@ 304
างหนึ 304
เปลือก@@ 304
เปีย@@ 304
และสิ 304
것인지 304
결과를 304
고등@@ 304
까요 304
둑@@ 304
유를 304
최 304
학생들이 304
yeon@@ 303
กิจ@@ 303
งประธานาธิบดี@@ 303
นเดือน@@ 303
รื 303
อแก 303
근본@@ 303
기간 303
니까요 303
다루@@ 303
때부터 303
림을 303
벅@@ 303
소한 303
얹@@ 303
이라크@@ 303
정임@@ 303
지금도 303
참가@@ 303
터를 303
ak@@ 302
be@@ 302
mar@@ 302
คุณจะไม 302
ฉันว 302
บาป@@ 302
มีแนวโน 302
ยาลัย@@ 302
รวมถึงการ@@ 302
ลงไปที 302
ศักดิ 302
างสมบูรณ 302
거지 302
건을 302
껍@@ 302
날의 302
도망@@ 302
력과 302
삶을 302
생각하는 302
우가 302
택 302
현재@@ 302
2000@@ 301
bi@@ 301
ชนบท@@ 301
ตอบสนองต 301
นถ 301
บรรพบุรุษ@@ 301
ปราศ@@ 301
พรร@@ 301
วิชาการ@@ 301
องกับการ@@ 301
อนของ@@ 301
เลขาธิการ@@ 301
공을 301
멀리 301
발이 301
여성 301
있다며 301
춰@@ 301
펼@@ 301
3월 300
eun 300
seok 300
ความสุข@@ 300
นิตยสาร@@ 300
มันจะเป 300
รายละเอียด@@ 300
ลิขสิทธิ 300
วยวิธีนี 300
สนทน@@ 300
เมฆ@@ 300
ในตลาด@@ 300
궁금@@ 300
다소 300
만났@@ 300
사회적 300
셨다 300
소프트웨@@ 300
어쩔 300
hwan 299
ทีวี@@ 299
บีบ@@ 299
วยเหตุผล@@ 299
วันก 299
หนังสือที 299
หากคุณไม 299
ียด 299
และเพื 299
곳은 299
나중에 299
눈으로 299
며칠 299
제도 299
충분@@ 299
치며 299
카메@@ 299
통일@@ 299
회원@@ 299
จะส 298
ชุมชน@@ 298
ตนเอง 298
วิกฤต@@ 298
หมาย 298
อหาของ@@ 298
าวที 298
ำเงิน@@ 298
ในกระบวนการ@@ 298
꿈을 298
나올 298
냐@@ 298
대출@@ 298
력에 298
만족@@ 298
보도@@ 298
시켜@@ 298
싶다 298
썼@@ 298
얻어@@ 298
이동@@ 298
이었던 298
전체 298
칸@@ 298
as@@ 297
กระทั 297
กลืน@@ 297
นำ 297
ภรรย@@ 297
วัฒ@@ 297
สะอาด@@ 297
สุดของ@@ 297
หนังสือ 297
อาจไม 297
구요 297
나머지 297
대변@@ 297
불이 297
아닐까 297
안전@@ 297
예정이다 297
이번@@ 297
해서는 297
형편@@ 297
jang@@ 296
jo 296
ครอบครัว 296
ฉันเคย@@ 296
มากเกินไป@@ 296
มิตร@@ 296
ยนไป@@ 296
ยาก 296
ระเบ@@ 296
หลาน@@ 296
องการ 296
ในทางตรงกันข 296
관객@@ 296
국민의 296
국방@@ 296
깜@@ 296
남자는 296
남편이 296
연을 296
인과 296
장애@@ 296
직한 296
..@@ 295
dong 295
min 295
ดุล@@ 295
นเวลานาน 295
ฝุ 295
มังกร@@ 295
มาจากการ@@ 295
ยั 295
ระงับ@@ 295
าการกระทรวง@@ 295
ามา 295
เฉลี 295
張@@ 295
게다가 295
극 295
비롯한 295
생각은 295
왔던 295
헐@@ 295
9년 294
and 294
กระแส@@ 294
งแรก 294
นผลให 294
ปรุง@@ 294
าของผู 294
เฉ@@ 294
까지의 294
떨어져 294
부산@@ 294
수혜는 294
없습니다 294
자체가 294
케이@@ 294
흔히 294
희가 294
คะแนน@@ 293
ตรงข 293
ปัญหาการ@@ 293
พาร 293
ภาษาเกาหลี@@ 293
ลาด@@ 293
สังคม 293
อนรับ@@ 293
ัศ@@ 293
าใคร@@ 293
ิธี@@ 293
โดยรวม@@ 293
교수는 293
군이 293
기다리고 293
기업의 293
깎@@ 293
몸에 293
선생은 293
열어 293
팅@@ 293
254@@ 292
จากด 292
จุดประสงค 292
ชนที 292
ทางเพศ@@ 292
ปกคลุม@@ 292
เขานั 292
เบอร 292
โศก@@ 292
기분이 292
당신 292
류를 292
리스@@ 292
안타@@ 292
엽@@ 292
이사@@ 292
인들의 292
자마자 292
제일 292
제품@@ 292
ซี 291
นวิธีการ@@ 291
รับการยอมรับ@@ 291
สินเชื 291
หมวก@@ 291
เพราะมัน@@ 291
เมตร@@ 291
ในแต 291
똥@@ 291
랄 291
목표@@ 291
문의 291
심리@@ 291
에너@@ 291
오면 291
입장@@ 291
전체@@ 291
1백@@ 290
กรณีที 290
ของคิม@@ 290
จริงๆ@@ 290
จะพูด@@ 290
สาน@@ 290
สเตอร 290
หรัฐ@@ 290
าตัว@@ 290
เปอร 290
เหลือง@@ 290
แรง 290
โค@@ 290
가까이 290
데요 290
모르고 290
반을 290
알려졌다 290
춘 290
훈련@@ 290
นบน@@ 289
ประชา@@ 289
ผลลัพธ 289
ลึกซึ 289
หยุด 289
อเมริกัน@@ 289
าหาญ@@ 289
เครดิต@@ 289
강력@@ 289
금융기관@@ 289
담을 289
바라보았다 289
에서부터 289
예술 289
이던 289
해서@@ 289
gor@@ 288
กองทุน@@ 288
คนงาน@@ 288
ความปลอดภัย@@ 288
บัญญัติ@@ 288
ลอย@@ 288
ลังเล@@ 288
าลี@@ 288
แผล@@ 288
ในทาง@@ 288
겸@@ 288
규 288
마지막@@ 288
마침 288
선의 288
시절 288
일으키@@ 288
좋아하는 288
ดีขึ 287
ตระหนักว 287
ทุกคนที 287
พิจารณาคดี@@ 287
วัง@@ 287
สูงขึ 287
หลวง@@ 287
องมือ@@ 287
ในชั 287
겠지 287
도입@@ 287
연합@@ 287
용이 287
정책 287
침묵@@ 287
필 287
회장 287
ของเจ 286
ของโรงเรียน@@ 286
งน 286
ตกล@@ 286
มีด@@ 286
สิงหาคม@@ 286
องโถ@@ 286
เพลิดเพลิน@@ 286
ในวันนั 286
고서 286
순간@@ 286
인해 286
텐데 286
피해@@ 286
혔다 286
4월 285
oo-@@ 285
sin@@ 285
จะกลายเป 285
ตัวแทนของ@@ 285
ปฏิบัติการ@@ 285
ประกาศว 285
ภู@@ 285
ยนเป 285
ลวง@@ 285
อนร 285
เขาและ@@ 285
ในกรณีนี 285
걸음@@ 285
걸쳐 285
고자 285
남편의 285
신경@@ 285
써 285
튼 285
판결@@ 285
8월 284
hwa@@ 284
คิดอย 284
งสี@@ 284
จง@@ 284
ตลอดทั 284
บี 284
พฤศจิก@@ 284
พลาส@@ 284
ยัง 284
วิพากษ 284
อาทิตย 284
อุ 284
ไอ@@ 284
교수 284
그녀에게 284
량을 284
마를 284
밤에 284
소리에 284
아닐 284
양의 284
언 284
있으니 284
출판@@ 284
ชาม@@ 283
บังคับ@@ 283
มะ@@ 283
วไป 283
อนตัว@@ 283
ฮุนได@@ 283
าแล 283
และให 283
ไว@@ 283
경우에는 283
다듬@@ 283
드의 283
들지 283
모르게 283
산업 283
샤@@ 283
얼른 283
었을 283
유치@@ 283
조사를 283
차라리 283
푸른 283
6년 282
jang 282
กระจก@@ 282
ของแต 282
นเครื 282
พวกเขามี@@ 282
มองดู@@ 282
วประเทศ@@ 282
หลักทรัพย 282
าอี 282
เอกชน@@ 282
แนะนำให 282
人@@ 282
구속@@ 282
깊이 282
대중 282
머리가 282
발행@@ 282
사항@@ 282
아버지@@ 282
우의 282
의견을 282
자동차 282
잠깐 282
조사 282
하얀 282
했어 282
.00 281
200 281
ni@@ 281
งในการ@@ 281
ประช@@ 281
มีทางเลือกนอกจาก@@ 281
มีสิ 281
สามีของฉัน@@ 281
ืด@@ 281
เทียม@@ 281
เสมอ@@ 281
แลนด 281
ในสิ 281
넓은 281
대에서 281
도와 281
모여 281
선생이 281
수많은 281
여기에 281
자금 281
추어 281
통합@@ 281
혔@@ 281
bo 280
mb@@ 280
คุณก 280
ทางเข 280
นมา 280
ยืนขึ 280
รวม 280
ษฐาน@@ 280
สามารถมองเห 280
าสุด@@ 280
แบบ 280
และดู@@ 280
길에 280
누구나 280
디어 280
머 280
물리@@ 280
법이 280
사건을 280
싶어 280
이젠 280
작가@@ 280
젓@@ 280
증 280
지급@@ 280
파는 280
회복@@ 280
4년 279
9월 279
byung@@ 279
the@@ 279
งอำนวยความสะดวก@@ 279
ทะเล 279
พันธมิตร@@ 279
วมในการ@@ 279
วร 279
อตกล@@ 279
เฝ 279
และทำ@@ 279
โฆษณ@@ 279
길은 279
꽂@@ 279
닥 279
대표 279
더라 279
만원@@ 279
말야 279
민자@@ 279
수행@@ 279
아이들은 279
었습니다 279
옹@@ 279
창조@@ 279
학년 279
한반@@ 279
ของเขาที 278
งอื 278
บน 278
ประจำวัน@@ 278
มสาว@@ 278
วุ@@ 278
าหล@@ 278
เซอร 278
แดง 278
그다@@ 278
도서@@ 278
부러@@ 278
셈이다 278
정신을 278
져야 278
con@@ 277
ของชีวิต@@ 277
นรูป@@ 277
มครอง@@ 277
หลอด@@ 277
อสังหาริมทรัพย 277
าไหร 277
โทษ 277
느라 277
두꺼@@ 277
석은 277
선은 277
소유@@ 277
아시아@@ 277
움 277
이자 277
조용@@ 277
지구@@ 277
호가 277
효과@@ 277
ขา@@ 276
ชาวต 276
ถูกส 276
ทารก@@ 276
พฤษภาคม@@ 276
มาเป 276
วางแผน@@ 276
วโลก@@ 276
หง@@ 276
หัส@@ 276
เหม@@ 276
แอน@@ 276
โคล@@ 276
ใจว 276
가슴 276
계획을 276
멘@@ 276
뱃@@ 276
붓@@ 276
세상 276
시설@@ 276
싶지 276
얼굴 276
이번에는 276
집중@@ 276
짖@@ 276
쪼@@ 276
항공@@ 276
yong 275
ติน@@ 275
นจึงเป 275
บรรลุ@@ 275
บาล@@ 275
ปน@@ 275
พาณิชย 275
ยาวนาน@@ 275
องเที 275
างสรรค 275
เคี 275
เจร@@ 275
เบี 275
ไปทั 275
근거@@ 275
발달@@ 275
브 275
산은 275
성한 275
아닌@@ 275
애는 275
인간은 275
짜리 275
첫째@@ 275
턴 275
핑@@ 275
ki 274
คำถามที 274
งคืน@@ 274
มั@@ 274
มีค 274
ระดับชาติ@@ 274
องร 274
อดท@@ 274
เขากลับ@@ 274
ในขณะ@@ 274
가난@@ 274
광고@@ 274
그렇지만 274
기에는 274
끝난 274
마을 274
맨 274
몰려@@ 274
미안@@ 274
법률@@ 274
쁜 274
사건 274
사상@@ 274
생각 274
세기 274
션 274
원하는 274
의견@@ 274
줬@@ 274
최고 274
7월 273
th@@ 273
กรอบ@@ 273
กลับ 273
จำหน 273
ฉุกเฉิน@@ 273
ซอฟต 273
ประเพณี@@ 273
สะสม@@ 273
สัง@@ 273
สำนักงานใหญ 273
สืบ@@ 273
อนการ@@ 273
อาชญากรรม@@ 273
อไปนี 273
ากันว 273
เพียงอย 273
ในสังคม@@ 273
가치@@ 273
께서 273
대신@@ 273
란다 273
맞아 273
보를 273
생각한다 273
아무래도 273
아직@@ 273
어질 273
의가 273
이상한 273
조합@@ 273
29@@ 272
กดดัน@@ 272
กระจ@@ 272
คือความ@@ 272
จะสร 272
นหน@@ 272
มันน 272
ลงทะเบียน@@ 272
ลล 272
วางใจ@@ 272
ากัน@@ 272
าเรื 272
ในงาน@@ 272
ไกล 272
넣어 272
대화@@ 272
대회 272
더불어 272
되며 272
수로 272
야말로 272
출발@@ 272
하락@@ 272
by@@ 271
กวี@@ 271
นอีกครั 271
ประทับ@@ 271
องดื 271
อาณาจักร@@ 271
างค@@ 271
เขามอง@@ 271
그림을 271
나갔@@ 271
능 271
대책@@ 271
말인가 271
명에 271
방이 271
사례@@ 271
엿@@ 271
웃음@@ 271
전화 271
전환@@ 271
주도@@ 271
주장했다 271
줄어@@ 271
짧은 271
총리@@ 271
กระทรว@@ 270
ขาว 270
คำนึงถึง@@ 270
จำนวนมาก 270
ชวน@@ 270
ชอบ 270
ถูกกล 270
บด@@ 270
พี@@ 270
อมโย@@ 270
ัค@@ 270
าเชื 270
แกะ@@ 270
ไต@@ 270
가게 270
감사@@ 270
곳으로 270
나이 270
따뜻@@ 270
에야 270
이해할 270
절을 270
제출@@ 270
조정@@ 270
치료@@ 270
친다 270
하이@@ 270
de 269
ดาร@@ 269
นเสียง@@ 269
บางส 269
สมั@@ 269
สำคัญของ@@ 269
หย 269
างถูกต 269
เภ@@ 269
โชค@@ 269
기념@@ 269
꽃 269
러시아 269
세계를 269
수업@@ 269
인간 269
인도@@ 269
지방 269
체험@@ 269
헛@@ 269
lg 268
งร 268
ทางทหาร@@ 268
นชม@@ 268
นใหม 268
ปัก@@ 268
ปัญหาของ@@ 268
ฝูง@@ 268
ละคน@@ 268
ละเอียด@@ 268
สะดวกสบาย@@ 268
อเทียบกับ@@ 268
าหนึ 268
เคารพ@@ 268
เพาะ@@ 268
แตะ@@ 268
แปลง@@ 268
그릇@@ 268
나섰다 268
맛을 268
물질@@ 268
사진을 268
어깨를 268
엄청난 268
에겐 268
전략@@ 268
함에 268
45@@ 267
6월 267
tt@@ 267
กลยุทธ 267
ผัก@@ 267
มีเหตุผลที 267
รับประกัน@@ 267
หนาว@@ 267
อเร 267
관의 267
단은 267
래의 267
마찬가지로 267
명으로 267
뱅@@ 267
비의 267
사이의 267
상으로 267
실험@@ 267
양을 267
엄마 267
예요 267
월에 267
짓을 267
찔@@ 267
켰다 267
팀 267
표시@@ 267
형식@@ 267
ui@@ 266
กันว 266
ดูเหมือนจะเป 266
ถึงกระนั 266
พั@@ 266
ภารกิจ@@ 266
มืออาชีพ@@ 266
วคราว@@ 266
หลังจาก 266
อมั 266
อิล@@ 266
อุดม@@ 266
าผ@@ 266
ูก 266
각을 266
관념@@ 266
관심이 266
마시고 266
반응@@ 266
상승@@ 266
았고 266
온갖 266
율이 266
이탈@@ 266
인으로 266
전에서 266
지르@@ 266
짐을 266
찢@@ 266
측이 266
픽 266
하러 266
ce@@ 265
yi 265
ตามเมื 265
ทางการทูต@@ 265
มอบให 265
ลักษณะที 265
สตรี@@ 265
หรือความ@@ 265
องต 265
าระดับ@@ 265
ียว@@ 265
거리고 265
거운 265
공부를 265
그들 265
날은 265
맘@@ 265
신철@@ 265
어쨌든 265
오직 265
정보를 265
출연@@ 265
크고 265
해보@@ 265
ahn 264
cheo@@ 264
chung@@ 264
นจึงไม 264
บนโต 264
ฝึกฝ@@ 264
ลักษณะของ@@ 264
สอง 264
หุบ@@ 264
เหล@@ 264
ในภาพยนตร 264
ไปข 264
감소@@ 264
과거@@ 264
구에 264
꺾@@ 264
대부분 264
돌려 264
되면서 264
똑같은 264
바이@@ 264
쉬운 264
시도@@ 264
실제 264
연주@@ 264
영원@@ 264
이승@@ 264
인들은 264
적으로는 264
제한@@ 264
토론@@ 264
beo@@ 263
gw@@ 263
kore@@ 263
งงาน 263
ชนะ 263
ดับ 263
ทรัพยากร@@ 263
รวมกัน@@ 263
รับการสนับสนุน@@ 263
หัว 263
ารัฐบาล@@ 263
ารับ@@ 263
แซ@@ 263
거라고 263
거리 263
겠어요 263
낮은 263
대부분의 263
랫@@ 263
략@@ 263
어디서 263
영업@@ 263
즘@@ 263
탑@@ 263
กชาย@@ 262
คุณควร@@ 262
วัย 262
สวรรค 262
สัญ@@ 262
เงินฝาก@@ 262
관계가 262
관계자는 262
기초@@ 262
나간 262
데이@@ 262
도시 262
돼야 262
로써 262
몰라 262
셀@@ 262
여자를 262
오른 262
펼쳐@@ 262
-d@@ 261
35 261
dong-@@ 261
eok 261
งทั 261
จบลง@@ 261
จาร@@ 261
ประกาย@@ 261
ประถม@@ 261
ลาน@@ 261
อุทิศ@@ 261
าของเขา 261
าไปในห 261
เจน@@ 261
เราสามารถ@@ 261
และมันก 261
โดยสาร@@ 261
ในกรณีที 261
가락@@ 261
능력을 261
롬@@ 261
봐야 261
세계의 261
시선을 261
어두@@ 261
연락@@ 261
영어@@ 261
젊은@@ 261
친구 261
틀 261
판에 261
폭 261
하는지 261
획@@ 261
ak 260
ik 260
กุมภาพันธ 260
คุณได 260
งครั 260
งวัน@@ 260
งไว 260
จัดระเบียบ@@ 260
บนใบหน 260
วาน@@ 260
หาว@@ 260
ายเงิน@@ 260
เกือบจะ@@ 260
เศษ@@ 260
เหมือนกัน@@ 260
걸음을 260
너를 260
느냐는 260
럽게 260
명과 260
몸 260
밀어@@ 260
빠진 260
사랑의 260
십니까 260
않는다는 260
정으로 260
직접@@ 260
진출@@ 260
찮@@ 260
합리@@ 260
jong-@@ 259
ss 259
tae 259
กระทรวงการต 259
คนนั 259
งบ@@ 259
ทรงจำ@@ 259
บนหน 259
างแน 259
ามันจะเป 259
ุน 259
เคมี@@ 259
ในสถานที 259
감은 259
광주@@ 259
깨닫@@ 259
낚@@ 259
둥 259
렴@@ 259
막을 259
망을 259
매를 259
아도 259
알지 259
약한 259
잔뜩 259
절대로 259
짙@@ 259
컴@@ 259
กผู 258
งโดย@@ 258
ซุป@@ 258
ฐ@@ 258
ตาและ@@ 258
ทุบ@@ 258
พิสูจน 258
พูดคุยเกี 258
ลูกบอล@@ 258
วนหนึ 258
ศาสน@@ 258
สหประชาชาติ@@ 258
อนุญาต@@ 258
ออกไปที 258
าพวกเขาจะ@@ 258
เปียก@@ 258
เพลงที 258
เมืองที 258
견 258
냄새@@ 258
눈길을 258
대해서도 258
두어 258
든가 258
민주당 258
방법이 258
뱉@@ 258
어느@@ 258
열었다 258
정신 258
주목@@ 258
중한 258
탁 258
하라고 258
해졌다 258
กลับมา 257
คุณค 257
งค 257
ตำรา@@ 257
นสมาชิก@@ 257
ระบอบการปกครอง@@ 257
หลังของ@@ 257
องนั 257
ะที 257
ิติ@@ 257
ีด@@ 257
โตเกีย@@ 257
โอกาสที 257
ในด 257
그라@@ 257
말하@@ 257
부르는 257
석을 257
성으로 257
연습@@ 257
특징@@ 257
할지 257
คัด@@ 256
ชะ@@ 256
ฐาน 256
ฟรี@@ 256
ภายใน 256
มาใช 256
รักษาความปลอดภัย@@ 256
หาร 256
ีบ@@ 256
และสร 256
ใส@@ 256
계에 256
관리 256
금이 256
내린 256
당을 256
디자@@ 256
불러 256
소련 256
실천@@ 256
왕 256
퀴@@ 256
황 256
hee@@ 255
myeong@@ 255
yo 255
กัง@@ 255
คัดค 255
งจาก@@ 255
จอด@@ 255
ทุนการ@@ 255
พึง@@ 255
พูดคุยกับ@@ 255
ยังคงเป 255
ลอก@@ 255
อดีต 255
ฮยอก@@ 255
ักษ@@ 255
เดียวกับ@@ 255
โชคร 255
것이니 255
골목@@ 255
녀가 255
다리 255
다시@@ 255
되었고 255
부지@@ 255
아이 255
유일한 255
이유로 255
형성@@ 255
yeri 254
กำกับดูแล@@ 254
ของกลุ 254
คิ 254
ตอบ 254
ทองคำ@@ 254
นทั 254
ฝี@@ 254
พน@@ 254
มล@@ 254
สามสิบ@@ 254
สีเหลือง@@ 254
าวและ@@ 254
เพราะเขา@@ 254
เพลิง@@ 254
เรียบ@@ 254
เสียงดัง@@ 254
และกลายเป 254
山@@ 254
걸려 254
겠어 254
경우는 254
끼리 254
남북@@ 254
로서의 254
무척 254
방향으로 254
보아 254
아프@@ 254
입니까 254
찾는 254
허 254
seung-@@ 253
คาดการณ 253
งไปที 253
ซม 253
ซาน 253
ตลาด 253
นจุด@@ 253
ผิดกฎหมาย@@ 253
มีน 253
ยอมแพ 253
ละทิ 253
างใกล 253
เขียน 253
เธอกำลัง@@ 253
เนีย@@ 253
가입@@ 253
권이 253
기능을 253
맞은 253
복잡@@ 253
자에게 253
저도 253
적도 253
전개@@ 253
전반@@ 253
지기 253
하듯 253
กรกฎาคม@@ 252
คื@@ 252
คืนนี 252
ถอนหายใจ@@ 252
ถูกตัด@@ 252
ศึกษา 252
อากาศ 252
าวกับว 252
เกิดจาก@@ 252
เฉย@@ 252
เวลาและ@@ 252
ในการสร 252
ในครั 252
구체적인 252
년은 252
눈물이 252
당신이 252
들어왔다 252
르르 252
만들고 252
버려@@ 252
부터는 252
삼성@@ 252
었는데 252
위협@@ 252
이른바 252
키가 252
5월 251
baek 251
cd@@ 251
ความพยายาม@@ 251
ฒ@@ 251
ตรงกันข 251
นกำลัง@@ 251
นจริง 251
ปริญญา@@ 251
พระพุทธเจ 251
พอ 251
พุ 251
มาน@@ 251
าการ 251
าจะมีการ@@ 251
เศรษฐกิจ 251
แบก@@ 251
가라@@ 251
가슴에 251
금융 251
내세@@ 251
눈치@@ 251
늦게 251
닐 251
대사@@ 251
물건@@ 251
뭔가 251
빵@@ 251
엘@@ 251
chang 250
hyo-cheol 250
lg@@ 250
por@@ 250
woo@@ 250
ของเขาก 250
ซิน@@ 250
ฐ 250
ดำเนินงาน@@ 250
ทราย@@ 250
นดังนั 250
นุ 250
ปวด@@ 250
รรม@@ 250
ระเบียบ@@ 250
อมัน@@ 250
อิเล 250
เรามี@@ 250
가시@@ 250
그러니 250
그에 250
대꾸@@ 250
독일 250
부여@@ 250
상무@@ 250
생각할 250
알아 250
출신@@ 250
카드@@ 250
1일 249
33 249
wor@@ 249
คลาย@@ 249
จน 249
ดวงจันทร 249
นย@@ 249
นอกเหนือ@@ 249
บาย@@ 249
ประสาท@@ 249
ฝนตก@@ 249
ฟาร 249
ฟิก@@ 249
ภาพและ@@ 249
รัฐธรรมนูญ@@ 249
ฤดู@@ 249
สูงที 249
หลักของ@@ 249
องชาย@@ 249
างงาน@@ 249
าวหาว 249
เกาหลีที 249
โดยทั 249
ไม@@ 249
관에 249
관은 249
날을 249
내년 249
대중@@ 249
라의 249
무릎@@ 249
방의 249
부와 249
붉@@ 249
비난@@ 249
슨@@ 249
이름이 249
전자@@ 249
절로 249
프랑스 249
회의를 249
힐 249
chae@@ 248
se 248
การทำ@@ 248
ของชาว@@ 248
จันทร 248
นักเขียน@@ 248
ปา@@ 248
มืด 248
สำหรับฉัน@@ 248
หลั 248
านหลังของ@@ 248
เฟ 248
เยอรมัน@@ 248
เสิร 248
ในสถานการณ 248
大@@ 248
계약@@ 248
노릇@@ 248
눈물을 248
더구나 248
더이상 248
만날 248
맛이 248
생기@@ 248
서해@@ 248
식구@@ 248
아냐 248
아름다@@ 248
힐@@ 248
38@@ 247
ad@@ 247
jong@@ 247
ความทรงจำ@@ 247
ซุ@@ 247
ถูก 247
นการยากที 247
นุษย 247
สามคน@@ 247
หด@@ 247
ออกกำลังกาย@@ 247
อิจฉ@@ 247
เขาน@@ 247
เหลี 247
แผนที 247
ไปรอบ 247
동네@@ 247
되자 247
력은 247
비서@@ 247
상황을 247
애가 247
어떻@@ 247
입장을 247
지지@@ 247
차에 247
캄@@ 247
bs 246
กรม@@ 246
ครอบครัวที 246
คำอธิบาย@@ 246
งบประมาณ@@ 246
ตะวันออกเฉียง@@ 246
ถึงแม 246
ทุกวัน 246
มีเหตุผล@@ 246
รุนแรง 246
ลงนาม@@ 246
สกุล@@ 246
อนอยู 246
อใดก 246
าวกันว 246
เยือน@@ 246
โทรหา@@ 246
โฟ@@ 246
근로@@ 246
노조@@ 246
다양@@ 246
동원@@ 246
불편@@ 246
아내가 246
예금@@ 246
이때 246
이오 246
자전@@ 246
작업을 246
저런 246
쩍@@ 246
찾을 246
하나도 246
하였고 246
bong 245
ครูที 245
ตระหนักถึง@@ 245
มันคือ@@ 245
มูลค 245
รณ@@ 245
ระดับสูง@@ 245
วมใน@@ 245
องจากความ@@ 245
อนุรักษ 245
อวานนี 245
อิสร@@ 245
ัติ 245
างรุนแรง@@ 245
าจาก@@ 245
าเรือ@@ 245
เบิก@@ 245
และเขา@@ 245
โดยตร@@ 245
계집@@ 245
나마 245
느낄 245
듭@@ 245
상징@@ 245
의혹@@ 245
자들을 245
전에는 245
해당@@ 245
혹 245
-r@@ 244
ation@@ 244
gi 244
การแสดงออก@@ 244
ควบ@@ 244
คู@@ 244
จีนและ@@ 244
นฉันไม 244
มลง@@ 244
มีความรู 244
ระบ@@ 244
วิตกกังวล@@ 244
าจอ@@ 244
าระหว 244
เกษียณ@@ 244
เงยหน 244
และค 244
และเขาก 244
ในวัย@@ 244
ไต 244
공동 244
나쁜 244
나이@@ 244
냐는 244
는다는 244
단에 244
돌 244
수상@@ 244
스로 244
역할@@ 244
우리를 244
지식@@ 244
차는 244
-seop 243
jung 243
จะเปลี 243
ฉันเข 243
ถนนที 243
ทางจิต@@ 243
นฉบับ@@ 243
นผิว@@ 243
นึก@@ 243
ประโยค@@ 243
พลิก@@ 243
พิพิธภัณฑ 243
พุทธ@@ 243
มีความสัมพันธ 243
อเรา@@ 243
ัปดาห 243
าเขาได 243
ุม 243
เกณฑ 243
แหล 243
거기에 243
내려 243
내며 243
덕 243
보장@@ 243
쑥 243
있었지만 243
주저@@ 243
ch 242
en 242
seon@@ 242
seoul 242
ye 242
กรี@@ 242
การสนับสนุน@@ 242
ความงาม@@ 242
ความเข 242
บันได@@ 242
ประหยัด@@ 242
ปีก@@ 242
ฝาก@@ 242
รับการแก 242
วงต 242
วัตถ@@ 242
สังคมนิยม@@ 242
อุณหภูมิ@@ 242
ารี@@ 242
เสริมสร 242
ไปเยี 242
一@@ 242
금방 242
내다@@ 242
내리는 242
딸 242
뭐라고 242
미의 242
믿고 242
바닷@@ 242
브라@@ 242
자면 242
전한 242
혼란@@ 242
กู@@ 241
ฟังก 241
มด 241
มีทาง@@ 241
รณ 241
ริก@@ 241
สามีของเธอ@@ 241
หลังจากผ 241
อยากจะ@@ 241
เลขานุการ@@ 241
เหยื 241
ไปใช 241
건축@@ 241
내놓@@ 241
머릿@@ 241
수에 241
자신도 241
평 241
해숙@@ 241
ck@@ 240
งผ 240
นเรา@@ 240
บี@@ 240
สนทนา@@ 240
อาหารที 240
เดินไป@@ 240
แฮ@@ 240
朴@@ 240
계는 240
골을 240
공포@@ 240
기회를 240
느낌을 240
다를 240
듣는 240
땐 240
뭔@@ 240
분에 240
신은 240
위치@@ 240
위해서@@ 240
유의 240
작품을 240
학교에서 240
196@@ 239
1천 239
35@@ 239
bi 239
son 239
ของฉันไม 239
ความตั 239
คำพูดที 239
นเกี 239
มีการเปลี 239
มเติม@@ 239
ยงไม 239
ลัง@@ 239
ฮยอง@@ 239
าเรียน@@ 239
เผชิญ@@ 239
เราม@@ 239
거기 239
경에 239
남을 239
내려다@@ 239
댔다 239
듯했다 239
등과 239
러시아@@ 239
모양이었다 239
몰아@@ 239
문은 239
뿌리@@ 239
섯@@ 239
실의 239
쓴@@ 239
우주@@ 239
잡은 239
장관 239
장난@@ 239
지나지 239
컬@@ 239
평균 239
ine 238
ขยับ@@ 238
ชนะเลิศ@@ 238
นปัญหา@@ 238
พลาด@@ 238
มสลาย@@ 238
มีความสำคัญ@@ 238
อยากรู 238
อรับ@@ 238
เกียรติ@@ 238
แล@@ 238
แสดง 238
경우도 238
구입@@ 238
데려@@ 238
벗어나@@ 238
솜@@ 238
스티@@ 238
작을 238
중단@@ 238
털어@@ 238
트의 238
핵 238
헌 238
화와 238
จริ@@ 237
จิตร@@ 237
ประท@@ 237
ภัย 237
มัธยม 237
มีอำนาจ@@ 237
วัสดิการ@@ 237
ศีลธรรม@@ 237
สบ@@ 237
หยาง@@ 237
อสัตย 237
อาบน 237
อุด@@ 237
เกินกว 237
เขย 237
และเริ 237
굴 237
기다리@@ 237
남자의 237
넉@@ 237
다음에 237
도와@@ 237
들어오@@ 237
머리에 237
안내@@ 237
영국 237
외국 237
은행의 237
정당@@ 237
좋지 237
지시@@ 237
직업@@ 237
진을 237
하여금 237
1천@@ 236
seong-@@ 236
un-@@ 236
ขัง@@ 236
ชีพ@@ 236
ชีวิตของ@@ 236
ซา@@ 236
ตอนเช 236
นว@@ 236
บก@@ 236
บรรทัด@@ 236
บัง@@ 236
บัญชาการ@@ 236
พึมพำ@@ 236
ภรรยาของฉัน@@ 236
มากมายที 236
ศิลปะ 236
อึดอัด@@ 236
างง 236
าใจผิด@@ 236
เกาหลีเหนือ 236
แรงบันดาลใจ@@ 236
โดด@@ 236
โล 236
가면서 236
나오고 236
들어간 236
딩@@ 236
뚜렷@@ 236
량이 236
마디@@ 236
모른다는 236
법에 236
분위기를 236
불렀다 236
술이 236
스포@@ 236
없어요 236
오랫동안 236
증권@@ 236
처음에는 236
측의 236
특별한 236
효과를 236
hyun 235
men@@ 235
คัดเลือก@@ 235
จัดงาน@@ 235
ฉันไปที 235
ตกรรม@@ 235
นสูง@@ 235
พัฒ@@ 235
พับ@@ 235
ยศ@@ 235
รักที 235
ฤดูกาล@@ 235
วาดภาพ@@ 235
อข 235
ักจะ@@ 235
เกียจ@@ 235
เขาที 235
เขายังคง@@ 235
เดินไปตาม@@ 235
ในบาง@@ 235
ในภาย@@ 235
◆ 235
계산@@ 235
규모 235
들어가는 235
등에서 235
뚝 235
랄@@ 235
렇게 235
려서 235
목적@@ 235
보였@@ 235
삽@@ 235
실이 235
원과 235
윤 235
의원은 235
인간이 235
잘못 235
전했다 235
접근@@ 235
주의의 235
지면 235
채로 235
쳐서 235
편지를 235
픈 235
피가 235
하겠다 235
후의 235
훔@@ 235
희의 235
9.@@ 234
to 234
ตรี@@ 234
ฝั 234
านการณ 234
เกอร 234
เครือข 234
เผ 234
โดยบอกว 234
ในข 234
급한 234
말한 234
모아 234
물로 234
상당한 234
소득@@ 234
슴@@ 234
시스템@@ 234
었지만 234
일종의 234
자네@@ 234
하고자 234
하는가 234
효율@@ 234
34 233
ความรุนแรง@@ 233
งชั 233
จากมุมมอง@@ 233
จำน@@ 233
ชัดว 233
ตรอก@@ 233
รวมตัว@@ 233
วยว 233
หลับ 233
หารือ@@ 233
걸어 233
길게 233
만들 233
말의 233
뮤@@ 233
사건이 233
에까지 233
열리는 233
임이 233
최근@@ 233
-hy@@ 232
กลาโหม@@ 232
ดอง@@ 232
ถูกสร 232
นอก 232
บรรจุ@@ 232
ระยะเวล@@ 232
ริม@@ 232
ลึกลับ@@ 232
สามัญ@@ 232
สายลม@@ 232
อนหิน@@ 232
าฉันเป 232
ในภาค@@ 232
가운@@ 232
가지를 232
고생@@ 232
내일 232
병원 232
사랑하는 232
상대로 232
스트 232
실한 232
싶어@@ 232
언니@@ 232
옛 232
이번에 232
자네 232
적어도 232
조금씩 232
증거@@ 232
직을 232
티 232
풀어@@ 232
풀이@@ 232
하의 232
2,@@ 231
ck 231
ing@@ 231
ขนมปัง@@ 231
งสำคัญ@@ 231
งแรง@@ 231
ชำระเงิน@@ 231
ตอนที 231
นของ 231
นสาย@@ 231
ประสาน@@ 231
ปลอด@@ 231
สวมใส 231
อนุมัติ@@ 231
แสวงหา@@ 231
โอล@@ 231
대부분@@ 231
어찌@@ 231
인상@@ 231
지마는 231
진이 231
터뜨@@ 231
팔 231
향을 231
tae-@@ 230
yoon 230
การกระทำ@@ 230
ขยายตัว@@ 230
งจ@@ 230
งเดียว 230
จราจร@@ 230
ปีหน 230
พัก 230
มีความสุข 230
ยว 230
สถ@@ 230
สูงและ@@ 230
เรียบง 230
เหลืออยู 230
เอล@@ 230
ในปีที 230
가족 230
겠습니다 230
기회가 230
년간 230
도저히 230
동네 230
로도 230
륙@@ 230
마루@@ 230
사에서 230
어머니를 230
어의 230
어제 230
엘 230
차원에서 230
허용@@ 230
호의 230
홈@@ 230
1월 229
ปูซาน@@ 229
มาชิก@@ 229
ลาย 229
สังหาร@@ 229
สึกถึง@@ 229
หวัง 229
อดี@@ 229
อเมริ@@ 229
อเมริกา@@ 229
เสียงหัวเราะ@@ 229
โรงแร@@ 229
❷ 229
가게@@ 229
과도 229
깡@@ 229
끝내 229
대답했다 229
새벽 229
솔직@@ 229
쑤@@ 229
않았던 229
암 229
양반@@ 229
전국@@ 229
조금도 229
주의를 229
첫째 229
축구@@ 229
춤을 229
통화@@ 229
dae 228
my@@ 228
par@@ 228
per@@ 228
กรร@@ 228
กา@@ 228
กิล@@ 228
คุกคาม@@ 228
ซึม@@ 228
นซึ 228
บังคับใช 228
สถา@@ 228
อกัน@@ 228
ืน 228
ไหนที 228
깝@@ 228
꽃이 228
넷@@ 228
대개 228
수도@@ 228
아내의 228
아픔@@ 228
양이 228
외무@@ 228
잠이 228
정책을 228
차림@@ 228
참으로 228
학적 228
กระโปรง@@ 227
คนแรก@@ 227
ฆา@@ 227
จำนวนมากที 227
จิ 227
ทัศนคติที 227
ทำไมคุณถึง@@ 227
ปาก 227
พวกเขาเป 227
สมดุล@@ 227
หิน 227
ออกมาและ@@ 227
างเกาหลี@@ 227
เหมาะสม 227
ในตอนนี 227
가을@@ 227
가졌@@ 227
굳이 227
년부터 227
님을 227
아시아 227
어버린 227
영역@@ 227
좌우@@ 227
쪽의 227
통신@@ 227
행정@@ 227
흩@@ 227
dahee 226
กาย 226
จากที 226
ฉลอง@@ 226
บวน@@ 226
ประชาชน 226
พิพากษา@@ 226
มากเกินไป 226
อินเดีย@@ 226
อู@@ 226
างทาง@@ 226
เกิดจากการ@@ 226
เลียนแบบ@@ 226
業@@ 226
겠소 226
냄새가 226
논리@@ 226
둘러 226
메이@@ 226
박사@@ 226
발로 226
밤을 226
본격@@ 226
신고@@ 226
아니라는 226
아니야 226
유엔 226
의하여 226
제와 226
조건 226
표정으로 226
하였던 226
mun@@ 225
sae@@ 225
ครัวเรือน@@ 225
จะเพิ 225
ฉันหวังว 225
ดัน@@ 225
ถิ 225
นพ 225
นาการ@@ 225
บุคลากร@@ 225
พริก@@ 225
พักผ 225
างมีนัย@@ 225
ายแพ 225
เกิดความ@@ 225
เตรียมพร 225
โชคดีที 225
ในปาก@@ 225
ไปกับ@@ 225
개최@@ 225
기간@@ 225
냄@@ 225
됩니다 225
뜨거운 225
르바@@ 225
버리는 225
뻐@@ 225
사장@@ 225
사한 225
스와 225
앞 225
얻어 225
엘리@@ 225
의식을 225
종을 225
총리 225
투를 225
ของข 224
ของบ 224
งทำเป 224
ปรารถนา@@ 224
ผิดหวัง@@ 224
มการ@@ 224
มาหา@@ 224
ลมหายใจ@@ 224
สึกที 224
สุดยอด@@ 224
องกันการ@@ 224
อบอก@@ 224
าดังนั 224
ิวเคลียร 224
เธอเป 224
เหลือ 224
거리가 224
극복@@ 224
글쎄 224
돌아온 224
벽을 224
삼아 224
시리@@ 224
아침에 224
있었기 224
자격@@ 224
자율@@ 224
작품 224
절대 224
증이 224
통과@@ 224
통해서 224
하준@@ 224
해외@@ 224
혼자서 224
hu@@ 223
kang 223
บันเท@@ 223
ปัญ@@ 223
ฟอร 223
มาร 223
มูล@@ 223
ยากจน@@ 223
รอยยิ 223
สบาย 223
หนา@@ 223
อำ@@ 223
อิต@@ 223
อิม@@ 223
าฉันต 223
าพ 223
าสิบ@@ 223
เดินเข 223
เพียงพอที 223
เราได 223
โดยที 223
갱@@ 223
관광@@ 223
굶@@ 223
급히 223
긍정@@ 223
라서 223
랭@@ 223
로만 223
마르@@ 223
사진 223
실현@@ 223
앉아서 223
원래 223
자료를 223
자연 223
저기 223
츠 223
친구가 223
คนใหม 222
ตอบว 222
ตามธรรมชาติ@@ 222
ประสงค 222
รบกวน@@ 222
สหร@@ 222
อาวุธนิวเคลียร 222
าราช@@ 222
าสงส@@ 222
โชซอน@@ 222
ไปโรงเรียน@@ 222
경향@@ 222
내렸다 222
대형 222
덤@@ 222
명령@@ 222
상과 222
씹@@ 222
아버지를 222
왔을 222
원록@@ 222
중국의 222
12월 221
cheong 221
ของน 221
คืนที 221
งมีชีวิต@@ 221
งสัย@@ 221
จะเปิด@@ 221
จุดที 221
นค 221
พวกเขาม@@ 221
มองไม 221
สมมติ@@ 221
หลัก 221
องรอย@@ 221
าจ 221
ียม@@ 221
ืม@@ 221
เบ 221
เหยียบ@@ 221
견디@@ 221
공업@@ 221
더러 221
도움을 221
라며 221
만으로 221
받게 221
봅@@ 221
소설 221
수와 221
수익@@ 221
었다고 221
엉뚱@@ 221
우리에게 221
율 221
이야기 221
자리 221
잖아요 221
장관은 221
주택@@ 221
프로그램을 221
피해 221
흰@@ 221
ok 220
กลัว 220
ของนาย@@ 220
คราวนี 220
ความสำเร 220
งขัน 220
ชรา@@ 220
ทำงานเป 220
ธุรกรรม@@ 220
นภาพ@@ 220
นาย 220
นแบบ@@ 220
รูปปั 220
สามารถช 220
ัส 220
ิจ@@ 220
เปลือ@@ 220
แซม@@ 220
ไปหา@@ 220
끌려@@ 220
낀 220
넘어 220
대와 220
도움이 220
무역@@ 220
바탕@@ 220
시원@@ 220
신뢰@@ 220
엄마는 220
유가 220
잣@@ 220
전쟁 220
정신이 220
제도를 220
호흡@@ 220
확정@@ 220
cheol 219
deo@@ 219
jung@@ 219
ma 219
mi 219
oh 219
ของร 219
คอล@@ 219
ชัยชนะ@@ 219
ตามไม 219
ตาร@@ 219
ทศ@@ 219
นการดีที 219
ปฏิบัติตาม@@ 219
ปลอม@@ 219
สะใภ 219
สุดที 219
สูงกว 219
องขอ@@ 219
อมีการ@@ 219
างเดียว@@ 219
างแข 219
านาน@@ 219
ารู 219
เวอร 219
개정@@ 219
귀 219
놓여 219
는지도 219
당신은 219
무엇이 219
버릴 219
생겼@@ 219
세상이 219
세워@@ 219
액 219
올리@@ 219
집은 219
쪽이 219
킨@@ 219
투자 219
프로그램 219
하자는 219
해지는 219
48@@ 218
university 218
กบ@@ 218
การปฏิรูป@@ 218
กาล@@ 218
ชะล@@ 218
ทางด 218
นศูนย 218
วว 218
อลด@@ 218
อวัน@@ 218
านิ@@ 218
าวหน 218
าสั 218
ำคา@@ 218
เสียใจที 218
แสงแดด@@ 218
โลหะ@@ 218
➀ 218
검찰은 218
굵@@ 218
궐@@ 218
그때@@ 218
목에 218
미군 218
범죄@@ 218
생각해@@ 218
시청@@ 218
온통 218
으로만 218
이렇@@ 218
죽 218
지나치게 218
테니까 218
핀@@ 218
했어요 218
roh 217
กับฉัน@@ 217
ขณะนี 217
ดวงตา@@ 217
วรรค 217
สหรัฐอเมริกา 217
านนอก@@ 217
ไส 217
韓@@ 217
갖는 217
관찰@@ 217
내의 217
둘째 217
선에 217
어는 217
옛날 217
올랐다 217
으로서의 217
음에 217
존의 217
지면서 217
촬영@@ 217
학습@@ 217
ng@@ 216
กม 216
ขว 216
ขององค 216
จังหวะ@@ 216
ตึงเครียด@@ 216
ทบทวน@@ 216
ทำงานที 216
นหวัง@@ 216
พลเมือง@@ 216
มีประสิทธิภาพ@@ 216
ละครั 216
ลัก@@ 216
สุน@@ 216
อรอง@@ 216
อับ@@ 216
ัจ@@ 216
าผาก@@ 216
เคยเห 216
และที 216
โปร 216
ไตรมาส@@ 216
그만큼 216
나이가 216
되게 216
들이다 216
류가 216
리라고 216
마른 216
모자@@ 216
스에 216
하라는 216
하에 216
하여야 216
학생이 216
2백 215
pi@@ 215
ran@@ 215
st 215
ve 215
กิน 215
ขาย 215
ความเชื 215
คืออะไร@@ 215
จะเกิดขึ 215
ฉันถูก@@ 215
ตัดสินว 215
ลอยอยู 215
สามารถรับ@@ 215
สืบสวน@@ 215
อนบ 215
ัฐ@@ 215
านขาย@@ 215
เลวร 215
แคบ@@ 215
แสดงที 215
แอบ@@ 215
โรงพยาบาล 215
ไปถึง@@ 215
것보다 215
계기로 215
기독@@ 215
동물@@ 215
됐다고 215
땅을 215
말하자면 215
묘한 215
밑에 215
방향을 215
법은 215
색의 215
생명@@ 215
설명했다 215
아이의 215
않았고 215
의식 215
이든 215
있었습니다 215
장윤 215
족 215
진의 215
짧@@ 215
화에 215
bank 214
ilbo 214
ok@@ 214
คติ@@ 214
นักวิชาการ@@ 214
พาย@@ 214
มห@@ 214
สารภาพ@@ 214
สไตล 214
องราวของ@@ 214
อยตัว@@ 214
เจริญ@@ 214
เตรียมการ@@ 214
เปียง@@ 214
แกล 214
โฆษก@@ 214
ใบไม 214
경비@@ 214
기관 214
기쁨@@ 214
대우@@ 214
무렵@@ 214
반복@@ 214
병이 214
부산 214
없어서 214
위원회 214
이유를 214
촌 214
펜@@ 214
-cheol 213
300@@ 213
กวางจู@@ 213
ขวบ@@ 213
งคร@@ 213
จี 213
ชายคนนี 213
บิน 213
ปัญญ@@ 213
พริ@@ 213
พันธ@@ 213
มีความคิด@@ 213
ยาย 213
รม@@ 213
วโมง@@ 213
สภ@@ 213
านค 213
ายหัว@@ 213
เปรียบ@@ 213
ในเกาหลี 213
걸었다 213
공통@@ 213
그리하여 213
널 213
느라고 213
닮@@ 213
덜 213
릭@@ 213
면의 213
버릇@@ 213
보살@@ 213
북한은 213
빠 213
선배@@ 213
싸고 213
앙 213
진짜 213
채택@@ 213
-hee 212
300 212
daegu 212
ph@@ 212
กรที 212
กังวลว 212
ขม@@ 212
งอย 212
งเข 212
ชู@@ 212
นระบบ@@ 212
นอกเห 212
นิว@@ 212
นู@@ 212
นและการ@@ 212
บอกคุณ@@ 212
พิจารณาว 212
ารถ@@ 212
ำตาล@@ 212
เขายืน@@ 212
เบียร 212
เอกอัครราชทูต@@ 212
건물 212
곽@@ 212
근처@@ 212
기나 212
나타난 212
높아@@ 212
는데도 212
불가@@ 212
설득@@ 212
시켰다 212
심각@@ 212
심각한 212
않도록 212
인도 212
잉@@ 212
장한 212
주면 212
주시@@ 212
지역의 212
파괴@@ 212
편으로 212
현재의 212
화된 212
กระทรวงศึกษาธิการ@@ 211
การพัฒนา@@ 211
ของนักเรียน@@ 211
คณิตศาสตร 211
คุณมี@@ 211
งชื 211
ชนชั 211
ชม 211
ชัก@@ 211
ตำนาน@@ 211
ประมวล@@ 211
สำเน@@ 211
ากล 211
าวุ@@ 211
ำแข 211
เคยได 211
เธอน@@ 211
แขก@@ 211
แฟชั 211
และนั 211
และวาง@@ 211
正@@ 211
김정@@ 211
닐@@ 211
라를 211
말하면 211
벽 211
빠른 211
선비는 211
술에 211
스터@@ 211
시간은 211
않을까 211
좁@@ 211
지금의 211
투쟁@@ 211
후보 211
chi 210
กรอง@@ 210
คุณยาย@@ 210
พยาบาล@@ 210
พักหนึ 210
ภรรยาของเขา@@ 210
มันเหมือน@@ 210
ยอน@@ 210
รวย@@ 210
รับรอง@@ 210
ราชการ@@ 210
สาย 210
เสถียร@@ 210
ในการทำ@@ 210
▼ 210
東@@ 210
거울@@ 210
과거 210
구분@@ 210
그들을 210
땅에 210
뜻 210
불행@@ 210
사회를 210
시대에 210
아까 210
얼굴은 210
열어@@ 210
자기를 210
재는 210
지닌 210
킨다 210
dan@@ 209
ll@@ 209
samsung 209
sc@@ 209
seok@@ 209
ur 209
× 209
ของทั 209
คำ 209
ดึงดูดความสนใจ@@ 209
ตง@@ 209
ตราบใดที 209
ถูกจับกุม@@ 209
ธรรมดา@@ 209
นใจ 209
พึ 209
หยาบ@@ 209
ออกจากห 209
อินเทอร 209
าระบบ@@ 209
ิญ@@ 209
감독의 209
같았@@ 209
경제적 209
그린 209
끼고 209
담배 209
담배@@ 209
동이 209
무엇인가 209
밀 209
방송 209
소는 209
아무개@@ 209
어떠한 209
잡을 209
좋을 209
주식@@ 209
치게 209
킬 209
해지고 209
ste@@ 208
ของสังคม@@ 208
งหนี@@ 208
งาม 208
ยงการ@@ 208
สะพ@@ 208
สูงอายุ@@ 208
อช 208
อึ@@ 208
เหยียด@@ 208
โปรแกร@@ 208
ในโลกนี 208
ไปจนถึง@@ 208
ไปและ@@ 208
거기서 208
두는 208
드가 208
들어서@@ 208
바른 208
발언@@ 208
배경@@ 208
붙은 208
실명@@ 208
전문가@@ 208
책이 208
철저@@ 208
초청@@ 208
텔 208
하지는 208
-hye 207
1만@@ 207
geo@@ 207
pp@@ 207
ut@@ 207
ya 207
กซี 207
นสำหรับ@@ 207
มกราคม@@ 207
ละคร 207
หา 207
อฉันเห 207
ในทะเล@@ 207
가루@@ 207
꽤 207
내기 207
녀의 207
덧붙였다 207
렸던 207
마치고 207
맞게 207
면으로 207
물어 207
밖의 207
법의 207
보낸 207
보일 207
부시 207
불교@@ 207
사랑 207
사실이다 207
시골@@ 207
일어나@@ 207
주기 207
쥐고 207
편안@@ 207
38 206
all 206
ka@@ 206
ความ 206
คุณจะต 206
ดีสำหรับ@@ 206
ตุลาคม@@ 206
ทางเดิน@@ 206
ทำร 206
นตัวอย 206
นหาก@@ 206
นิวยอร 206
บางคนที 206
พยอง@@ 206
มองว 206
วโมง 206
สับ@@ 206
สามารถเป 206
หรือน@@ 206
าคนที 206
างจริงจัง@@ 206
ไล@@ 206
資@@ 206
교육의 206
그제@@ 206
꺼내 206
나라가 206
내에서 206
던지 206
맞춰 206
사람과 206
사로@@ 206
스토@@ 206
씌@@ 206
아파트 206
오늘은 206
재로 206
적지 206
진지@@ 206
타는 206
통하여 206
펄@@ 206
해질 206
행동을 206
seok-@@ 205
ความเร 205
งเล 205
จักรยาน@@ 205
ตามลำ@@ 205
นของการ@@ 205
นักเรียนที 205
บังคับให 205
ราคา 205
วงที 205
สกปร@@ 205
หมายถึงการ@@ 205
อิง@@ 205
างกายของฉัน@@ 205
าวิท@@ 205
าหลัก@@ 205
โลภ@@ 205
โอเค@@ 205
갖게 205
공간@@ 205
금의 205
꽃을 205
높이 205
대화를 205
랗@@ 205
렸고 205
물론@@ 205
박한 205
사람에게 205
소에서 205
아마도 205
오늘날 205
오던 205
이르는 205
이에요 205
일찍 205
톱@@ 205
학생들의 205
해온 205
5백@@ 204
je 204
mr. 204
กันอย 204
คลั 204
คี@@ 204
งสุดท 204
จัดหา@@ 204
ชาติน@@ 204
ซุง@@ 204
ตำรวจ 204
ประหลาดใจ 204
ยาลัย 204
วุ 204
สมาชิ@@ 204
สละ@@ 204
อฉันได 204
างก 204
ือน 204
เกิดการ@@ 204
เดินไปรอบ 204
เติบโตขึ 204
เปลว@@ 204
เพิก@@ 204
แนะ@@ 204
และก 204
ในประวัติศาสตร 204
기구@@ 204
낫@@ 204
도리@@ 204
들어온 204
떠난 204
마가 204
면은 204
방문을 204
방법으로 204
상관@@ 204
썼다 204
얼굴로 204
엄마가 204
용을 204
이리 204
전은 204
편집@@ 204
피아@@ 204
학년@@ 204
한꺼번에 204
한쪽 204
jeo@@ 203
กรด@@ 203
กเล 203
ความช 203
จดจำ@@ 203
จอ@@ 203
ชาวเกาหลีเหนือ@@ 203
ดำรงอยู 203
ตกใจ@@ 203
ทำไมคุณไม 203
ธนาคาร 203
นวัน@@ 203
พวกเขาทั 203
หารือเกี 203
อกำหนด@@ 203
อัตโนม@@ 203
างเต 203
ารัง@@ 203
าเสียด@@ 203
เพด@@ 203
แทบจะไม 203
ในชุด@@ 203
개인의 203
군은 203
남편은 203
너무@@ 203
동안@@ 203
라디@@ 203
랴 203
많았다 203
망설@@ 203
맞고 203
바깥@@ 203
발휘@@ 203
번역@@ 203
변화를 203
부엌@@ 203
산으로 203
소식을 203
시아@@ 203
아이들 203
의무@@ 203
이같은 203
이외@@ 203
자금을 203
집단@@ 203
참을 203
칼을 203
트가 203
ge 202
jong 202
จะช 202
ชัดเจ@@ 202
นธรรม 202
มีเงิน@@ 202
ยัก@@ 202
ลงไปใน@@ 202
หอม@@ 202
างาน@@ 202
แร 202
ในฤดูใบไม 202
개혁 202
게임@@ 202
내내 202
당신의 202
생겨@@ 202
석이 202
아줌@@ 202
운동의 202
의료@@ 202
인에 202
자식 202
제2@@ 202
제3@@ 202
종일 202
침 202
플라@@ 202
허리를 202
2백@@ 201
ook@@ 201
กังวล 201
งซึ 201
งสาธารณ@@ 201
จัง 201
ติภาพ@@ 201
ทาร@@ 201
นเวลาหนึ 201
ปรากฎ@@ 201
ฟัง 201
มข 201
มีประสบการณ 201
หัวใจของฉัน@@ 201
อยล 201
างชัดเจน@@ 201
าถูก@@ 201
าบัน@@ 201
าแห 201
ำกว 201
เกลือ@@ 201
เดียง@@ 201
แดด@@ 201
และอื 201
각기 201
기보다는 201
나온다 201
녕 201
담은 201
되는데 201
되었던 201
릅@@ 201
미국은 201
본질@@ 201
부끄러@@ 201
분노@@ 201
소리도 201
않아도 201
앓@@ 201
어느새 201
옛날@@ 201
이스라@@ 201
차이가 201
책은 201
치의 201
하셨@@ 201
학의 201
한마디@@ 201
한복@@ 201
희생@@ 201
10월 200
ของธนาคาร@@ 200
คลิน@@ 200
ชร@@ 200
นสาเหตุ@@ 200
นานา@@ 200
นในวันที 200
บุคคล 200
บุช@@ 200
พุ@@ 200
ยินดี@@ 200
สีเขียว@@ 200
หันหลัง@@ 200
องก@@ 200
องหมาย@@ 200
าฉันกำลัง@@ 200
าสนใจ@@ 200
าอ@@ 200
าเขาต 200
เผชิญกับ@@ 200
갚@@ 200
것이요 200
념 200
니를 200
닌@@ 200
달러 200
도둑@@ 200
봉 200
식은 200
아름답@@ 200
요즘@@ 200
율을 200
정의@@ 200
지원 200
짓고 200
% 199
dang 199
hyundai 199
การแต 199
ครี@@ 199
คืนนั 199
จบการศึกษาจาก@@ 199
ฉันจึง@@ 199
ฉันพบ@@ 199
ทนไม 199
ธุรกิจ 199
นฟ@@ 199
บรรทุก@@ 199
ปราบปราม@@ 199
ปรารถนาที 199
มิติ@@ 199
สามารถพูดได 199
เคราะห 199
เยาะ@@ 199
가운데@@ 199
교도@@ 199
귀에 199
긍@@ 199
기운@@ 199
기지 199
뉘@@ 199
다름@@ 199
들렸다 199
력으로 199
모순@@ 199
몫@@ 199
무덤@@ 199
박물@@ 199
수혜@@ 199
시켰@@ 199
어두운 199
었다는 199
여겨@@ 199
이냐 199
점으로 199
조용히 199
da 198
is 198
we@@ 198
ความรับผิดชอบ@@ 198
ญาติ@@ 198
ดวงตาที 198
ถกเถียง@@ 198
ถือว 198
บนท 198
ประชุม 198
ปลอบ@@ 198
มิถุนายน 198
ระบุว 198
ลงทุนใน@@ 198
ศึกษาที 198
สถาบันวิจัย@@ 198
สึกถึงความ@@ 198
อันตราย@@ 198
อาจกล 198
าเล 198
ียด@@ 198
เติ@@ 198
แคล@@ 198
ในตอนแรก@@ 198
ไทย@@ 198
대상이 198
더러@@ 198
돌이 198
들여 198
따르@@ 198
라가 198
룻@@ 198
못하게 198
무언@@ 198
문제로 198
방울@@ 198
사이 198
소와 198
어가 198
여섯 198
열을 198
왜냐하면 198
원자@@ 198
윽@@ 198
의미가 198
이틀@@ 198
자도 198
질문을 198
커피@@ 198
태평@@ 198
트는 198
하나로 198
횡@@ 198
for@@ 197
wol@@ 197
กลางวัน@@ 197
ดำ 197
ตำหนิ@@ 197
ทำความ@@ 197
นมาก 197
นัก 197
ปริ@@ 197
มีผล@@ 197
ระมัดระวัง 197
สนามบิน@@ 197
สหรัฐอเมริกาและ@@ 197
สำคัญในการ@@ 197
สำหรับเด 197
หอย@@ 197
อยครั 197
อวกาศ@@ 197
อัตราดอกเบี 197
างอิสระ@@ 197
ามหาวิท@@ 197
าเงิน@@ 197
เกลียดชัง@@ 197
เขียว@@ 197
เลือ@@ 197
개방@@ 197
게는 197
규칙@@ 197
꾼 197
느끼는 197
다니며 197
대기@@ 197
대답을 197
리면서 197
모임@@ 197
바라보고 197
번째@@ 197
병원@@ 197
상황에서 197
설립@@ 197
세대 197
세에 197
소로 197
아들이 197
어디로 197
영혼@@ 197
익 197
일부러 197
척 197
캠@@ 197
콧@@ 197
푼@@ 197
풀 197
하더@@ 197
획 197
2월 196
5천@@ 196
กลัวว 196
กวาด@@ 196
ตาราง@@ 196
ถู@@ 196
นวิธีที 196
ปิดกั 196
พระอาทิตย 196
พลเรือน@@ 196
มีบทบาท@@ 196
ยอมรับว 196
สอบเข 196
สืบทอด@@ 196
หลุมฝังศพ@@ 196
อเพิ 196
อเล 196
ฮุน@@ 196
ามีความ@@ 196
าเทียม@@ 196
เดินไปที 196
โบก@@ 196
강조했다 196
내용이 196
들어와 196
몬@@ 196
뭐가 196
밀려@@ 196
박을 196
방법은 196
슈 196
액을 196
어둠 196
없지만 196
윗@@ 196
의로 196
의존@@ 196
읽고 196
저지@@ 196
짐승@@ 196
편을 196
학교의 196
한동안 196
คำน@@ 195
จะนำ@@ 195
จุดเริ 195
ฑ@@ 195
ตะวันออก 195
ทรา@@ 195
ทวี@@ 195
ทางเลือก@@ 195
ทานอาหาร@@ 195
นิยม 195
พันธบัตร@@ 195
มีความเป 195
ยอง 195
ระยะยาว@@ 195
รัฐสภา@@ 195
สามวัน@@ 195
อถือ@@ 195
อปีที 195
อังกฤษ 195
างละเอียด@@ 195
าฝ 195
ายไปที 195
าใจ 195
เกต@@ 195
เขากล@@ 195
แบบดั 195
และนำ@@ 195
고정@@ 195
관에서 195
늙은 195
단체 195
독일@@ 195
동의 195
례 195
맞지 195
목소리를 195
물건을 195
밖에서 195
반영@@ 195
보도했다 195
사실상 195
새벽@@ 195
색깔@@ 195
생각하면 195
서울대 195
소리와 195
순임@@ 195
웃으며 195
인천@@ 195
적극 195
한두 195
pyeong 194
กีฬา@@ 194
ครอบครอง@@ 194
ทุจริต@@ 194
นหลัง@@ 194
นอนอยู 194
นายคิม@@ 194
บาน@@ 194
ปลูกฝัง@@ 194
มงวด@@ 194
รง@@ 194
รองประธาน@@ 194
วิกฤ@@ 194
วิศวก@@ 194
สะด@@ 194
สาร 194
หลงใหล@@ 194
หายตัว@@ 194
เชียร 194
เดือด@@ 194
แปซิ@@ 194
แรงจู@@ 194
價@@ 194
거든요 194
것이나 194
공장 194
끝까지 194
넘는 194
도무지 194
돕@@ 194
되도록 194
두드@@ 194
딴 194
바닥을 194
생의 194
아이들을 194
아이들의 194
올라 194
의하면 194
자극@@ 194
장사@@ 194
중을 194
하려@@ 194
32 193
cd 193
gil@@ 193
gnp 193
shi@@ 193
กรา@@ 193
กิม@@ 193
ความสามารถในการ@@ 193
คำศัพท 193
ดีว 193
ดึก@@ 193
บวก@@ 193
บุคลิกภาพ@@ 193
ปฏิเสธที 193
พวกเขาต 193
มีความแตกต 193
มีร 193
ยวกับความ@@ 193
อันที 193
เกินไปที 193
เลข 193
และรู 193
ในนาม@@ 193
것인데 193
경험을 193
괄@@ 193
긴다 193
껄@@ 193
노력을 193
놓인 193
니다만 193
비디오 193
비슷@@ 193
사이로 193
송 193
슬픔@@ 193
안보@@ 193
얽@@ 193
이내 193
이야기가 193
이지요 193
정보 193
조성@@ 193
책상 193
추는 193
콤@@ 193
19일 192
กันเถอะ 192
ตรี 192
ตามด 192
ถัดไป 192
นนำ@@ 192
บุญ@@ 192
พวกเขาจะ@@ 192
วยตัวเอง@@ 192
เขาพูด@@ 192
เปิดเผยว 192
เลก@@ 192
เลยที 192
เลือก 192
โพธิสัตว 192
ในเวลากลาง@@ 192
결론@@ 192
고만 192
공무@@ 192
교환@@ 192
그룹 192
돌을 192
많고 192
무섭@@ 192
바람 192
비교적 192
생각도 192
생각에 192
시대 192
우승@@ 192
음악 192
잡았다 192
재무@@ 192
정과 192
정하고 192
줌@@ 192
질렀다 192
펀@@ 192
하늘을 192
하였으나 192
ard 191
ji-s@@ 191
yoo 191
กระจัด@@ 191
การอ 191
คุณคิดว 191
งชาติโซล@@ 191
จาระ@@ 191
นล 191
มันคือการ@@ 191
มันบอกว 191
สมบัติ@@ 191
องราวที 191
อถึง@@ 191
อนกลับ@@ 191
อเข 191
ากรรม@@ 191
างจริง@@ 191
าแฟ@@ 191
เกิน 191
เสาร 191
เอว@@ 191
แปรง@@ 191
ในกระเป 191
ในญี 191
결합@@ 191
금지@@ 191
뒤집@@ 191
머물@@ 191
문화의 191
바탕으로 191
봐라 191
신문 191
은행은 191
제조@@ 191
집의 191
했지 191
혐의로 191
회장은 191
훌륭한 191
44@@ 190
chosun.com 190
ro 190
กระดับ@@ 190
กุ 190
ชะต@@ 190
ชิม@@ 190
นจากการ@@ 190
นใด@@ 190
บรรเท@@ 190
ประมา@@ 190
พันธ 190
ราคาหุ 190
ายแรง@@ 190
ุณ@@ 190
간호@@ 190
끈 190
느낌이 190
마음의 190
번도 190
시장의 190
언젠가 190
없기 190
왕의 190
위원장 190
익은 190
일에는 190
자들@@ 190
자세히 190
적이다 190
제발 190
주먹@@ 190
차고 190
최초의 190
하고도 190
하니까 190
학생들은 190
했는지 190
화려@@ 190
흐르는 190
힌@@ 190
-sik 189
ของพี 189
คนจาก@@ 189
ความมืด@@ 189
งคู 189
ดาร 189
ประดิษฐ 189
ยุติ@@ 189
ลดลงอย 189
สาห@@ 189
หญิงคนหนึ 189
เดีย@@ 189
เตา@@ 189
เทป@@ 189
เหรอ 189
โยบาย@@ 189
生@@ 189
경계@@ 189
고가 189
고등학교 189
공항@@ 189
나누어 189
내부@@ 189
더듬@@ 189
두를 189
바다 189
반응을 189
배치@@ 189
버스 189
벌떡 189
범한 189
생산 189
서울로 189
석의 189
어딘@@ 189
엉덩@@ 189
영화의 189
우리나라 189
유럽 189
은근@@ 189
익숙@@ 189
잊지 189
자존@@ 189
좁은 189
쪽은 189
페이@@ 189
흥 189
11월 188
2천 188
go 188
hyo@@ 188
mun 188
sil@@ 188
คนต 188
จับกุม@@ 188
นฉันคิดว 188
นเหตุผลที 188
ประชากร@@ 188
ประหลาด@@ 188
ปัญญา@@ 188
ภ 188
วงครึ 188
วมตัว@@ 188
วิส@@ 188
ศัก@@ 188
สอบ 188
สามหรือ@@ 188
สำนึก@@ 188
หมอก@@ 188
าจะได 188
าเธอจะ@@ 188
เผย@@ 188
เวน@@ 188
แจก@@ 188
โซเวียต@@ 188
견딜 188
고무@@ 188
그럴@@ 188
나란히 188
단단@@ 188
당초 188
대비@@ 188
대접@@ 188
떠 188
마의 188
모래@@ 188
몰랐다 188
무엇보다 188
무엇인@@ 188
문제의 188
보증@@ 188
보통@@ 188
선생의 188
숨이 188
심은 188
알았다 188
여야 188
올린 188
통일 188
하지도 188
해는 188
2천@@ 187
et@@ 187
pro@@ 187
งประเทศ@@ 187
ชาต@@ 187
ประหาร@@ 187
พบ 187
มองข 187
มากและ@@ 187
ระวัง@@ 187
ลงมา@@ 187
วอนต 187
สนใจ 187
สามครั 187
สาว 187
หมู@@ 187
เปิดกว 187
ในเขต@@ 187
단순히 187
돌아 187
때로는 187
이것을 187
지섭은 187
프를 187
현상@@ 187
ของเกาหลี 186
ครอบงำ@@ 186
ชาวอเมริกัน@@ 186
ฝังอยู 186
ลึก 186
สิ@@ 186
หลังค@@ 186
อาย 186
อิสระ 186
อิสรา@@ 186
ัมพันธ 186
ายด@@ 186
าวถึง@@ 186
เขาถูก@@ 186
เลว@@ 186
ไซต 186
中@@ 186
가볍게 186
경은 186
고통을 186
공식@@ 186
교사 186
국무@@ 186
기본 186
년에는 186
담고 186
대표적인 186
득 186
뜻이 186
량의 186
물과 186
방금 186
방식으로 186
분은 186
싫어@@ 186
역사를 186
요일 186
작년 186
추구@@ 186
탱@@ 186
투 186
해에 186
회견@@ 186
การส 185
กุญแจ@@ 185
คนหนุ 185
ฉันควร@@ 185
ดัชนี@@ 185
นักร 185
บนถน@@ 185
มิถุนาย@@ 185
ยนแปลง 185
ระฆัง@@ 185
รับใช 185
สัญลักษณ 185
สึกไม 185
หงุดหงิด@@ 185
อมรอบ@@ 185
อาหารกลางวัน@@ 185
าเด 185
ิชา@@ 185
แทรกแซ@@ 185
แว 185
โซจู@@ 185
者@@ 185
가던 185
가질 185
결혼 185
경제의 185
고마@@ 185
그러다가 185
기계@@ 185
긴장@@ 185
나선 185
답답@@ 185
렸을 185
리우@@ 185
민족의 185
박사는 185
부인 185
사냥@@ 185
상한 185
성격을 185
성도 185
스레 185
염 185
옮겨@@ 185
욕 185
위와 185
은가 185
이들을 185
재정@@ 185
즐거@@ 185
처리 185
청와대 185
취급@@ 185
치로 185
하기는 185
36 184
dongja@@ 184
ของระบบ@@ 184
นมนุษย 184
นมือ@@ 184
นานมานี 184
บังเอ@@ 184
พิธีกรรม@@ 184
รุง@@ 184
ลังเลที 184
ลุ@@ 184
สามารถเห 184
อมูลที 184
ออกและ@@ 184
ังคง@@ 184
ุข@@ 184
เธอได 184
เลยว 184
แถ@@ 184
แย@@ 184
แว@@ 184
โกร@@ 184
ใครบางคน@@ 184
性@@ 184
감정을 184
같지 184
결을 184
결혼을 184
고맙@@ 184
그녀 184
단순한 184
대처@@ 184
더니@@ 184
디다 184
모으@@ 184
무렵 184
사업 184
사회가 184
아낙@@ 184
아픈 184
악 184
으려고 184
일정한 184
저리 184
적당@@ 184
제1@@ 184
조신은 184
준비를 184
지라도 184
킨 184
해야@@ 184
흠@@ 184
sch@@ 183
การก 183
คอย@@ 183
จะดำเนินการ@@ 183
จาน@@ 183
ชายหาด@@ 183
ซัน@@ 183
ฐานะ@@ 183
ดัก@@ 183
ดูถูก@@ 183
มันจะไม 183
มันยากที 183
ระบอบ@@ 183
ลงคะแนน@@ 183
สาขา@@ 183
หยุน@@ 183
าเขามี@@ 183
ียร 183
เปื 183
เพราะมันเป 183
โบสถ 183
โลกแห 183
나니 183
눈은 183
다음날 183
돌아오@@ 183
몰랐@@ 183
민족 183
뿜@@ 183
사정@@ 183
선진@@ 183
와도 183
원도 183
월의 183
유엔@@ 183
이리@@ 183
인사 183
점의 183
지경@@ 183
지내@@ 183
편의 183
해주는 183
48 182
cor@@ 182
my 182
ของคณะกรรมการ@@ 182
คลาสสิก@@ 182
งกันและกัน@@ 182
ฉันพูด@@ 182
ตามกฎหมาย@@ 182
ฝัน 182
มองที 182
หนู@@ 182
หันหน 182
องศ@@ 182
อรี 182
ออสเตร@@ 182
ัช@@ 182
าของคุณ@@ 182
าสังคม@@ 182
เขียนที 182
เพราะฉันไม 182
➌ 182
계열@@ 182
그나마 182
나타나는 182
달라는 182
떠나 182
또다시 182
모가 182
모델@@ 182
목의 182
쓰지 182
씨에게 182
옥 182
우리들은 182
하였으며 182
한숨을 182
-jung 181
.co@@ 181
ga 181
jae 181
mon@@ 181
wa@@ 181
ของกองทัพ@@ 181
ของมหาวิทยาลัย@@ 181
จสิ 181
จากนี 181
ซัม@@ 181
นหลังจาก@@ 181
นเดียว@@ 181
นโดยไม 181
บรรณา@@ 181
บริจาค@@ 181
มากแค 181
มีลักษณะ@@ 181
รอบตัว@@ 181
ลูกชายคน@@ 181
หู 181
ามากกว 181
าวเข 181
าสู@@ 181
แหล@@ 181
가벼@@ 181
거대한 181
겁게 181
계획이다 181
구별@@ 181
그러고 181
끝이 181
낡@@ 181
달린 181
달을 181
들어갈 181
미소를 181
보내고 181
부분을 181
사내가 181
스트레@@ 181
신경을 181
아이디@@ 181
연이 181
옛@@ 181
워낙 181
이끌@@ 181
일부@@ 181
자유 181
접촉@@ 181
제거@@ 181
buk@@ 180
chung 180
seon 180
กระทรวงการคลัง@@ 180
ของฉันเป 180
ของฮ@@ 180
ฉันด 180
นรูปแบบ@@ 180
นสะเทือน@@ 180
นับตั 180
นิร@@ 180
บนถนน@@ 180
บัณฑ@@ 180
พวกเขาได 180
มความ@@ 180
วยรอยยิ 180
ศิษยาภิบ@@ 180
สวมเสื 180
สุนทร@@ 180
านได 180
าให 180
โลกนี 180
감히 180
과학 180
금은 180
김씨는 180
꼬 180
꽁@@ 180
놓을 180
대문 180
대학의 180
뜨고 180
럭 180
면서@@ 180
모는 180
모습은 180
모양이다 180
미사@@ 180
분리@@ 180
선생님이 180
아프리@@ 180
앞을 180
얗@@ 180
없었고 180
영순@@ 180
외국인 180
욕망@@ 180
으로의 180
이익을 180
일상@@ 180
전문 180
전자 180
종의 180
평생 180
포함한 180
한을 180
-sook 179
.k@@ 179
an-@@ 179
chi@@ 179
การศึกษา 179
กเทศ@@ 179
คือสิ 179
คุณเห 179
งของ 179
ฉันชอบ@@ 179
ฉันอยากจะ@@ 179
ดำเนินคดี@@ 179
ตราย@@ 179
นกำเนิด@@ 179
นนักเรียน@@ 179
มีคำ@@ 179
มีนาคม 179
สม 179
สีฟ 179
างนอก 179
าวันหนึ 179
าใกล 179
แง 179
และเด 179
ในตำแหน 179
ในบรรดา@@ 179
→ 179
검 179
곁에 179
깜짝 179
내리고 179
당연히 179
당황@@ 179
만들기 179
만들었다 179
말입니다 179
며느@@ 179
목으로 179
보던 179
비틀@@ 179
사상 179
사용하는 179
세로 179
세우고 179
수요@@ 179
시도 179
얻은 179
올림@@ 179
이루어진 179
입술을 179
적에 179
정해 179
쳐다보았다 179
키는 179
핏@@ 179
현실을 179
ab@@ 178
lim 178
sung 178
การจัด@@ 178
การศึกษาของ@@ 178
ควรเป 178
ความลับ@@ 178
ชดเชย@@ 178
ชัด@@ 178
ตัดสินใจว 178
ทนายความ@@ 178
ทำน@@ 178
นกลาง@@ 178
นฉันจะ@@ 178
นผ 178
บวม@@ 178
ประมาณหนึ 178
พรรค 178
มีโอกาส@@ 178
สมเหตุสม@@ 178
สัญญาว 178
หรือเปล 178
าอยู 178
เรียงความ@@ 178
ในเวลาที 178
가락 178
곡을 178
그리고는 178
끊임없이 178
나오지 178
넌@@ 178
당시의 178
동에 178
들면 178
모양으로 178
미국이 178
밝히고 178
보아@@ 178
불어@@ 178
비디@@ 178
사령@@ 178
사회에 178
상당히 178
상태에서 178
예술의 178
올려 178
음식을 178
이에게 178
해의 178
행하는 178
화학@@ 178
ขมขื 177
ของประชาชน@@ 177
งงานกับ@@ 177
งสอง 177
จิน 177
ดำรงตำแหน 177
นกัน@@ 177
ฟฟ@@ 177
ภาพถ 177
รอบค@@ 177
วินาที@@ 177
สนธิ@@ 177
สะพาน@@ 177
สูญ@@ 177
อของ 177
อนด 177
าปี@@ 177
าสัง@@ 177
แทบ@@ 177
แนวทาง@@ 177
แปลกประหลาด@@ 177
และกล 177
기여@@ 177
논란@@ 177
닉@@ 177
데가 177
수혜가 177
아아 177
월드컵@@ 177
재가 177
정기@@ 177
중이 177
중이다 177
포르@@ 177
폭발@@ 177
플레이@@ 177
해선 177
회장@@ 177
효과가 177
히지 177
song@@ 176
คริสตจักร@@ 176
ฉันจำ@@ 176
ฉันเชื 176
ดีมาก 176
นกลุ 176
นพิเศษ@@ 176
พระราช@@ 176
ภาค 176
มีกลิ 176
ยิน 176
อกระ@@ 176
อขาย@@ 176
อุตสาห@@ 176
ฮว@@ 176
ัญญ@@ 176
างบ 176
าซึ 176
ุส@@ 176
แขวนอยู 176
แยกจาก@@ 176
โรงเรียนที 176
거였다 176
거절@@ 176
겨울 176
격한 176
경우에 176
고의 176
국립@@ 176
금순@@ 176
꺼내@@ 176
나요 176
대전 176
렉@@ 176
룬 176
리면 176
말았@@ 176
서비스 176
월부터 176
의원이 176
이른 176
졌고 176
차별@@ 176
파견@@ 176
하긴 176
한마디로 176
2000 175
29일 175
งมัน@@ 175
ตามเนื 175
ถือเป 175
ทรอน@@ 175
ทางกฎหมาย@@ 175
ทุก 175
นคล@@ 175
นเมือง@@ 175
มองไปรอบ 175
มีลูก@@ 175
วมงาน@@ 175
สาม 175
อุปสรร@@ 175
างประเทศที 175
างระมัดระวัง@@ 175
างสอง@@ 175
าธรรมเนียม@@ 175
าธารณะ@@ 175
เงินทุน@@ 175
เฉล@@ 175
เบล@@ 175
機@@ 175
産@@ 175
감독이 175
관련해 175
권에 175
나아@@ 175
니와 175
당에 175
도에서 175
둘이 175
럴 175
몰래 175
번이나 175
살았@@ 175
시로 175
쑥@@ 175
아들을 175
일방@@ 175
좋고 175
죄 175
쫓아@@ 175
해줄 175
ori 174
sy@@ 174
กฎระเบียบ@@ 174
ของทีม@@ 174
คับ@@ 174
คิม 174
งใหม 174
จักกัน@@ 174
ชุม@@ 174
ดังที 174
ตุล@@ 174
นายกรัฐมนตรี 174
นแตกต 174
ปรับตัว@@ 174
ปลด@@ 174
พฤษ@@ 174
มีสี@@ 174
รงค 174
รากฐาน@@ 174
วัยกลาง@@ 174
สบายใจ@@ 174
สักครู 174
องกังวล@@ 174
ออกไปจาก@@ 174
างกายที 174
ำแล 174
ิวทัศน 174
เขาว 174
เบส@@ 174
เบิล@@ 174
เอื 174
และเจ 174
ในการเลือกตั 174
ในตอนเย 174
ในป 174
ในหน 174
가운 174
갈수록 174
나무를 174
늙은@@ 174
다시는 174
닭@@ 174
사과@@ 174
수단@@ 174
얻을 174
이래 174
있었을 174
재산@@ 174
좀@@ 174
지휘@@ 174
) 173
าศ 173
融@@ 173
싹@@ 173
죽음을 173
차로 173
충격@@ 173
치에 173
한때 173
กรกฎ@@ 172
คราม@@ 172
เยอร@@ 172
줘 172
퍼 172
q 171
รรม 171
物@@ 171
( 170
ปรึก@@ 170
꽉 170
푹 170
z 169
ศิษ@@ 169
สมา@@ 169
道@@ 169
뢰@@ 169
에요 169
옵@@ 169
충 169
커 169
폰@@ 169
กระทบ@@ 168
างสรร@@ 168
เคล@@ 168
會@@ 168
괜@@ 168
릇 168
츰 168
큐@@ 168
킬@@ 168
hyun@@ 167
อนาคต 167
อาชญ@@ 167
ัพ@@ 167
เหน@@ 167
แกร@@ 167
저히 167
젊@@ 167
협 167
훌@@ 167
ระด@@ 166
รางวั@@ 166
สลาย@@ 166
สิงหา@@ 166
เดือ@@ 166
낀@@ 166
링@@ 166
모른@@ 166
썩 166
청와@@ 166
혼자@@ 166
흘 166
딴@@ 165
렵@@ 165
썰@@ 165
이익@@ 165
ซับ@@ 164
ฮย@@ 164
เศรษฐ@@ 164
댕@@ 164
상당@@ 164
샌@@ 164
튿@@ 164
휩@@ 164
ver@@ 163
ในเวล@@ 163
넥@@ 163
볶@@ 163
일한 163
착 163
큼@@ 163
탈 163
패 163
ทู@@ 162
ประชาธิปไต@@ 162
พระพุทธ@@ 162
긁@@ 162
คลัง@@ 161
ระมัดระวัง@@ 161
ัติ@@ 161
ิศ@@ 161
โจม@@ 161
꾀@@ 161
털 161
텔@@ 161
헬@@ 161
-seo@@ 160
ำต@@ 160
心@@ 160
갑 160
런 160
뿔@@ 160
짱@@ 160
ณะ@@ 159
ราว@@ 159
รุป@@ 159
หลบ@@ 159
經@@ 159
렁 159
옷 159
짜 159
มง@@ 158
ัข@@ 158
놔@@ 158
렇@@ 158
볕@@ 158
싹 158
클 158
ดูก@@ 157
뷰@@ 157
โส@@ 156
롯 156
슨 156
싣@@ 156
칫@@ 156
~ 155
สก@@ 155
อัด@@ 155
ฯ 155
쟝@@ 155
추 155
`@@ 154
ปรารถ@@ 154
วัง 154
ำลัง@@ 154
เทียบ@@ 154
ไท@@ 154
껴@@ 154
끔 154
융@@ 154
쭈@@ 154
ฤ@@ 153
ัตร@@ 153
เพล@@ 153
โซเวีย@@ 153
뜩@@ 153
숙 153
พู@@ 152
〉 152
객 152
꿔 152
꿔@@ 152
툭 152
/ 151
จฉ@@ 151
โอก@@ 151
냥 151
늙@@ 151
늬@@ 151
률 151
앤@@ 151
얼 151
엮@@ 151
팅 151
ฉบ@@ 150
มัด@@ 150
動@@ 150
떴@@ 150
략 150
룡@@ 150
㎞ 149
갯@@ 149
궤@@ 149
롯@@ 149
시스@@ 149
กระทรวงการ@@ 148
กันและกัน@@ 148
บาด@@ 148
벙@@ 148
왈@@ 148
톤@@ 148
ทำไมคุณ@@ 147
มิถุน@@ 147
ไหร 147
不@@ 147
子@@ 147
文@@ 147
광 147
낸@@ 147
룰 147
줍@@ 147
텐@@ 147
톨@@ 147
ทัศน 146
ใดก 146
꿰@@ 146
풋@@ 146
ban@@ 145
ศิลป@@ 145
แร@@ 145
〈 145
外@@ 145
天@@ 145
支@@ 145
콩 145
텅 145
กรณ 144
มเหล@@ 144
ากลาง@@ 144
เฉียง@@ 144
넷 144
섭 144
캔@@ 144
อสัง@@ 143
เรือน@@ 143
깨 143
륜@@ 143
$ 142
การปกครอง@@ 142
ตอบสน@@ 142
มติ@@ 142
เฉพ@@ 142
แสด@@ 142
โลห@@ 142
곱 142
눠@@ 142
델@@ 142
맣@@ 142
젤@@ 142
춤 142
훈 142
` 141
พิพาก@@ 141
ละเอ@@ 141
ลำบ@@ 141
เนียม@@ 141
安@@ 141
日@@ 141
義@@ 141
行@@ 141
겸 141
낱@@ 141
빤@@ 141
젯@@ 141
해서도 141
คาร@@ 140
ประเภ@@ 140
สาท@@ 140
깐@@ 140
떳@@ 140
핏 140
กรัฐ@@ 139
定@@ 139
自@@ 139
댄@@ 139
릉@@ 139
칙 139
컸@@ 139
พูดได 138
เถียง@@ 138
갇@@ 138
댁 138
쌀 138
어떠@@ 138
픽@@ 138
ขย@@ 137
ลึ@@ 137
盧@@ 137
눕@@ 137
즌 137
คอม@@ 136
คุม@@ 136
ธิบ@@ 136
นิส@@ 136
ษัตริย 136
อธิบ@@ 136
เถ@@ 136
โถ@@ 136
롤@@ 136
칭 136
칼 136
켰@@ 136
툼@@ 136
uni@@ 135
ณา@@ 135
닷@@ 135
뺨@@ 135
쇼 135
ธุ@@ 134
ภูมิใจ@@ 134
ลุก@@ 134
귓@@ 134
느꼈@@ 134
뜰@@ 134
쏟@@ 134
엄 134
hn 133
ดน@@ 133
สนับสน@@ 133
成@@ 133
法@@ 133
댔@@ 133
시아 133
팡@@ 133
ดอกเบี 132
นัย@@ 132
รวด@@ 132
วรร@@ 132
用@@ 132
뵈@@ 132
푼 132
ทะเบียน@@ 131
ศึก@@ 131
늉@@ 131
멜@@ 131
버 131
บุรุษ@@ 130
วรรษ@@ 130
갸@@ 130
꿀@@ 130
이스@@ 130
핸@@ 130
ทด@@ 129
ทัพ@@ 129
ผน@@ 129
รษ@@ 129
สะอา@@ 129
事@@ 129
水@@ 129
갓@@ 129
ยี@@ 128
แทรก@@ 128
內@@ 128
놨@@ 128
뜬 128
슬 128
앗@@ 128
앵@@ 128
ore@@ 127
씬@@ 127
언젠@@ 127
엇@@ 127
육 127
펴 127
혜 127
ธี@@ 126
ในบรร@@ 126
明@@ 126
民@@ 126
鄭@@ 126
센 126
셔 126
윌@@ 126
컥 126
팩@@ 126
ww@@ 125
สูตร@@ 125
เครียด@@ 125
늑@@ 125
덧붙@@ 125
หญิงส@@ 124
無@@ 124
門@@ 124
껑@@ 124
맴@@ 124
샘@@ 124
옴@@ 124
찻@@ 124
칫 124
헝@@ 124
กระท@@ 123
ประสิทธิ@@ 123
สุข 123
ิช@@ 123
ูง@@ 123
高@@ 123
꿇@@ 123
뽀@@ 123
섹@@ 123
전히 123
쩡@@ 123
­ 122
รับผิด@@ 122
三@@ 122
틱@@ 122
ขนม@@ 121
คำนึง@@ 121
ุทร@@ 121
โภ@@ 121
눌 121
탔@@ 121
훑@@ 121
ธาร@@ 120
รวดเร 120
ฬ@@ 120
อักษร@@ 120
ียบ 120
แอล@@ 120
之@@ 120
德@@ 120
通@@ 120
번에 120
엑@@ 120
옆 120
쟁 120
rin 119
อัต@@ 119
ิค@@ 119
在@@ 119
룬@@ 119
찼@@ 119
ราง@@ 118
徐@@ 118
대체 118
덴@@ 118
뭇 118
쭉@@ 118
풍 118
คราว@@ 117
ทักท@@ 117
บัญ@@ 117
เกีย@@ 117
เพรา@@ 117
เวีย@@ 117
信@@ 117
入@@ 117
收@@ 117
둡@@ 117
쇤@@ 117
아닐@@ 117
웬 117
윈@@ 117
으 117
잎 117
최초@@ 117
핀 117
นวน@@ 116
าดัง@@ 116
เกาหล@@ 116
新@@ 116
神@@ 116
폼@@ 116
งเศ@@ 115
ยุโร@@ 115
느 115
웃 115
팎@@ 115
홉@@ 115
หาด@@ 114
➍ 114
本@@ 114
理@@ 114
눠 114
밭 114
섬 114
앨@@ 114
접 114
칸 114
เยาว@@ 113
굿@@ 113
궁 113
닌 113
랬@@ 113
엇 113
큼 113
gu 112
ชายคน@@ 112
บัน@@ 112
ศิล@@ 112
關@@ 112
젝@@ 112
징 112
훼@@ 112
พฤติ@@ 111
านุ@@ 111
● 111
相@@ 111
낮 111
넋@@ 111
덧@@ 111
둬@@ 111
켓@@ 111
플 111
#@@ 110
&@@ 110
วิดี@@ 110
投@@ 110
답 110
블 110
빽@@ 110
춰 110
텔레@@ 110
톡@@ 110
팍@@ 110
％ 110
ชีวิ@@ 109
พยา@@ 109
ึม@@ 109
上@@ 109
出@@ 109
格@@ 109
白@@ 109
꾹 109
봄 109
샅@@ 109
숲 109
심히 109
쩐@@ 109
틴@@ 109
팠@@ 109
สิง@@ 108
เกือ@@ 108
เปร@@ 108
家@@ 108
歌@@ 108
輸@@ 108
둠@@ 108
땡@@ 108
ity 107
นเวลาน@@ 107
ปฏิเส@@ 107
อำนา@@ 107
าที@@ 107
俊@@ 107
政@@ 107
얇@@ 107
왠@@ 107
욱 107
잦@@ 107
폈@@ 107
햄@@ 107
ความว 106
ชำ@@ 106
อนุญา@@ 106
對@@ 106
값 106
쏠@@ 106
틱 106
휘 106
กวน@@ 105
ทัศ@@ 105
꿀 105
댄 105
맛 105
뭣@@ 105
옐@@ 105
sun 104
ธิป@@ 104
หลาก@@ 104
長@@ 104
녕@@ 104
란히 104
쭉 104
텍@@ 104
튜@@ 104
gn@@ 103
วล 103
วัสด@@ 103
อักษ@@ 103
อาวุ@@ 103
羅@@ 103
뒹@@ 103
봇@@ 103
삿@@ 103
學@@ 102
率@@ 102
갓 102
굉@@ 102
덟 102
붕 102
กั 101
นสะ@@ 101
าวกับ@@ 101
าวหา@@ 101
的 101
단순@@ 101
듭 101
람 101
บันท@@ 100
ปฏิบ@@ 100
ประชาชาติ@@ 100
วัต@@ 100
公@@ 100
海@@ 100
딛@@ 100
멕@@ 100
빅@@ 100
촛@@ 100
확 100
กาง@@ 99
บัติ@@ 99
วรรษที 99
늠@@ 99
떤@@ 99
숱@@ 99
찡@@ 99
취 99
폐 99
ปราก@@ 98
ลำบาก@@ 98
สไต@@ 98
อกำ@@ 98
ึง 98
崔@@ 98
꿈 98
펠@@ 98
ตำ@@ 97
ทะเบ@@ 97
ิทธิ@@ 97
◈ 97
南@@ 97
꼴 97
찌 97
r. 96
กระดา@@ 96
利@@ 96
情@@ 96
洪@@ 96
닝@@ 96
듀@@ 96
램@@ 96
뻘@@ 96
샀@@ 96
컵@@ 96
킹@@ 96
홉 96
คริสต@@ 95
ฏ 95
ปฏ@@ 95
หญิ@@ 95
世@@ 95
化@@ 95
要@@ 95
趙@@ 95
덧 95
빌 95
잠 95
쩔@@ 95
퀴 95
킹 95
퍽 95
000 94
มาส@@ 94
ษา@@ 94
小@@ 94
깍@@ 94
껴 94
쉴 94
썽@@ 94
템 94
툭@@ 94
อุบัติ@@ 93
าเหตุ@@ 93
เลียน@@ 93
แวดล 93
有@@ 93
끝 93
셰@@ 93
씀 93
잤@@ 93
짐 93
췄@@ 93
쿨@@ 93
ฆ@@ 92
ภาร@@ 92
ศาส@@ 92
美@@ 92
銀@@ 92
깁@@ 92
둑 92
릎 92
솥@@ 92
amp@@ 91
q@@ 91
ประถ@@ 91
มนตรี 91
ารัฐ@@ 91
เหมา@@ 91
깐 91
뇨 91
뒀@@ 91
띤 91
룸@@ 91
숨 91
젠@@ 91
อำน@@ 90
ึด@@ 90
氣@@ 90
대부@@ 90
땜@@ 90
랍 90
맥 90
밖 90
엌 90
탤@@ 90
혁 90
นิทรรศ@@ 89
อัง@@ 89
อัย@@ 89
อาศ@@ 89
費@@ 89
運@@ 89
갛@@ 89
겔@@ 89
떡 89
뜸@@ 89
릿 89
썹@@ 89
옇@@ 89
춧@@ 89
쿵@@ 89
งสร 88
ถัด@@ 88
อั@@ 88
℃ 88
地@@ 88
市@@ 88
뎌@@ 88
뷔@@ 88
쎄@@ 88
횟@@ 88
hye 87
ศต@@ 87
基@@ 87
方@@ 87
濟@@ 87
뾰@@ 87
혼 87
힘 87
ศก@@ 86
ฯ@@ 86
貨@@ 86
끗 86
뜰 86
마지@@ 86
뱀@@ 86
엷@@ 86
쥔 86
짤@@ 86
พื@@ 85
มากม@@ 85
ศัตร@@ 85
名@@ 85
龍@@ 85
누 85
롱 85
멤@@ 85
완 85
잉 85
즘 85
ทนาย@@ 84
原@@ 84
同@@ 84
尹@@ 84
괴 84
뜸 84
벅 84
컷 84
틴 84
.com 83
ธิ 83
มัง@@ 83
〕 83
合@@ 83
語@@ 83
變@@ 83
따 83
롬 83
톤 83
훤@@ 83
ภาว@@ 82
รรศ@@ 82
โบรา@@ 82
〔 82
元@@ 82
書@@ 82
王@@ 82
겐@@ 82
불구@@ 82
켈@@ 82
bae@@ 81
ญแจ@@ 81
ทย 81
ประต@@ 81
ิสต 81
國 81
權@@ 81
댓@@ 81
렷@@ 81
륙 81
릉 81
빡@@ 81
˙ 80
場@@ 80
平@@ 80
軍@@ 80
部@@ 80
걀@@ 80
꾹@@ 80
뀐 80
나머@@ 80
녘@@ 80
논 80
륵@@ 80
마찬@@ 80
밴@@ 80
뺏@@ 80
아마@@ 80
압 80
헐 80
งป@@ 79
ประหล@@ 79
พฤ@@ 79
思@@ 79
朝@@ 79
石@@ 79
깥 79
댈 79
딜@@ 79
럽 79
맹 79
샐@@ 79
엄청@@ 79
줏@@ 79
탑 79
ฟุต@@ 78
เทคโนโล@@ 78
先@@ 78
林@@ 78
궂@@ 78
긋 78
다란 78
뜬@@ 78
릭 78
헨@@ 78
ขโม@@ 77
ครอบ@@ 77
บวนการ@@ 77
ฝึกอบ@@ 77
เติบ@@ 77
佛@@ 77
全@@ 77
制@@ 77
意@@ 77
的@@ 77
늬 77
멎@@ 77
빵 77
ati@@ 76
ันท@@ 76
淸@@ 76
늄 76
링 76
멩@@ 76
벨 76
붐@@ 76
빙 76
숟@@ 76
싯@@ 76
얌@@ 76
즌@@ 76
킴@@ 76
มาย 75
河 75
덥@@ 75
묵 75
믄@@ 75
밋@@ 75
어쨌@@ 75
좆@@ 75
훌륭@@ 75
ครอบคร@@ 74
วิธีนี 74
เกษ@@ 74
เสียด@@ 74
古@@ 74
消@@ 74
갤@@ 74
동자@@ 74
똘@@ 74
탠@@ 74
틸@@ 74
흙 74
จำก@@ 73
องไ@@ 73
㎏ 73
是@@ 73
眞@@ 73
知@@ 73
能@@ 73
萬@@ 73
끌 73
끗@@ 73
럴@@ 73
쓱@@ 73
효 73
ชาญ@@ 72
บัญชา@@ 72
ผัส@@ 72
หิม@@ 72
河@@ 72
덴 72
딜 72
얄@@ 72
테 72
퇴 72
푸 72
คลาสส@@ 71
อะ 71
善@@ 71
깔 71
쇄 71
좇@@ 71
ัณ@@ 70
㎜ 70
和@@ 70
宗@@ 70
立@@ 70
詩@@ 70
밍@@ 70
페 70
สมัชชา@@ 69
หนังส@@ 69
เชย@@ 69
品@@ 69
數@@ 69
源@@ 69
申@@ 69
넨 69
슛@@ 69
좌 69
ทัก@@ 68
พิจารณาค@@ 68
也@@ 68
分@@ 68
史@@ 68
商@@ 68
西@@ 68
닝 68
멍 68
쇠 68
칵 68
컬 68
컷@@ 68
턱 68
홀 68
휙 68
งหม@@ 67
京@@ 67
城@@ 67
山 67
發@@ 67
造@@ 67
껌@@ 67
랴@@ 67
샹@@ 67
쌈@@ 67
잽@@ 67
첩 67
컫@@ 67
งสุด@@ 66
นอิส@@ 66
นิตย@@ 66
主@@ 66
煥 66
가만@@ 66
랙@@ 66
랩@@ 66
웅 66
켠@@ 66
ฉ 65
วจ@@ 65
อวาน@@ 65
อาณา@@ 65
ัท@@ 65
ิยาย@@ 65
億@@ 65
度@@ 65
業 65
漢@@ 65
돗@@ 65
둬 65
딩 65
릇@@ 65
맵@@ 65
밸@@ 65
뻣@@ 65
웰@@ 65
찜@@ 65
งทำ@@ 64
บาท@@ 64
อเทียบ@@ 64
เทอร 64
㎝ 64
仁@@ 64
修@@ 64
加@@ 64
字@@ 64
時@@ 64
空@@ 64
겁 64
렌 64
렴 64
뭡@@ 64
삶 64
졸 64
컵 64
핍@@ 64
핑 64
활 64
กอ@@ 63
จังหว@@ 63
จินต@@ 63
ชด@@ 63
บัญญ@@ 63
ภัณฑ 63
าธารณ@@ 63
➎ 63
實@@ 63
所@@ 63
花@@ 63
겐 63
낄@@ 63
눔@@ 63
늄@@ 63
멱@@ 63
몹@@ 63
밉@@ 63
짊@@ 63
캘@@ 63
휴 63
ศีล@@ 62
เปล@@ 62
光@@ 62
官@@ 62
監@@ 62
風@@ 62
괘@@ 62
꼿@@ 62
룡 62
콜 62
쿵 62
펑@@ 62
폰 62
 62
j 61
คลาส@@ 61
สอด@@ 61
อภิปร@@ 61
ิตย@@ 61
แสวง@@ 61
禪@@ 61
者 61
都@@ 61
類@@ 61
냅@@ 61
딘 61
럿@@ 61
뤄 61
멋 61
빴@@ 61
섣@@ 61
얘 61
엠@@ 61
읊@@ 61
잿@@ 61
쩌@@ 61
ตำหน@@ 60
มาณ@@ 60
ืด 60
เลขา@@ 60
容@@ 60
獨@@ 60
鍾@@ 60
靑@@ 60
黃@@ 60
낌@@ 60
덤 60
래도 60
뤘@@ 60
뻑 60
샴@@ 60
슭@@ 60
싸 60
얕@@ 60
엣@@ 60
칩@@ 60
ออกกำลัง@@ 59
ับสน@@ 59
下@@ 59
永@@ 59
닭 59
륵 59
메 59
베 59
첼@@ 59
จบการศึกษา@@ 58
บริโภ@@ 58
อเม@@ 58
ิม 58
別@@ 58
昌@@ 58
身@@ 58
꽝@@ 58
띔@@ 58
쥐 58
템@@ 58
ฉุกเฉ@@ 57
ธรรมเนียม@@ 57
บัน 57
ปัจ@@ 57
อิส@@ 57
其@@ 57
年@@ 57
式@@ 57
社@@ 57
重@@ 57
델 57
멧@@ 57
소프트@@ 57
씬 57
쿄@@ 57
텁@@ 57
， 57
前@@ 56
因@@ 56
常@@ 56
源 56
균 56
뼈 56
즙@@ 56
팝@@ 56
훗@@ 56
จริต@@ 55
ดำรง@@ 55
ภิ@@ 55
มณ 55
เดียวก@@ 55
♠ 55
如@@ 55
得@@ 55
最@@ 55
月@@ 55
낼@@ 55
뎅@@ 55
똥 55
믹@@ 55
촉 55
킥@@ 55
 55
 55
ชัย@@ 54
พึมพ@@ 54
รถบ@@ 54
會 54
財@@ 54
賣@@ 54
꺽 54
녜@@ 54
눅@@ 54
렬 54
마침@@ 54
벚@@ 54
뵙@@ 54
앤 54
톡 54
펄 54
金@@ 54
ณิต@@ 53
นิท@@ 53
วงศ 53
หนด@@ 53
อนุม@@ 53
子 53
州@@ 53
府@@ 53
榮@@ 53
泰@@ 53
製@@ 53
調@@ 53
進@@ 53
間@@ 53
깬 53
녔@@ 53
덟@@ 53
렛@@ 53
머니@@ 53
뭘@@ 53
솔 53
썬@@ 53
윙@@ 53
폴 53
จรา@@ 52
จิก@@ 52
ธุร@@ 52
วิญ@@ 52
สิท@@ 52
三 52
二@@ 52
夫@@ 52
工@@ 52
敎@@ 52
歌 52
言@@ 52
轉@@ 52
걀 52
냇@@ 52
샤 52
셋 52
읍 52
춥@@ 52
쿼@@ 52
툴@@ 52
ทรก@@ 51
ทฤษฎ@@ 51
ุบ@@ 51
เอกอัครราช@@ 51
伐 51
吳@@ 51
根@@ 51
然@@ 51
爲@@ 51
田@@ 51
私@@ 51
詞@@ 51
順@@ 51
둣@@ 51
딘@@ 51
럼 51
뭔 51
뻬@@ 51
쌌@@ 51
엽 51
ขนมป@@ 50
ตรร@@ 50
ูนย 50
เตร@@ 50
作@@ 50
境@@ 50
我@@ 50
構@@ 50
泳@@ 50
開@@ 50
陽@@ 50
馬@@ 50
맷@@ 50
쁠 50
팜 50
ฤดูก@@ 49
สมบ@@ 49
อภิ@@ 49
五@@ 49
性 49
樂@@ 49
羅 49
規@@ 49
計@@ 49
論@@ 49
놀 49
뇌 49
멓@@ 49
불어 49
잭@@ 49
찧@@ 49
 49
ตะวัน@@ 48
ปราบ@@ 48
วิตก@@ 48
หงุดหง@@ 48
อำนวยความสะดวก@@ 48
俗@@ 48
則@@ 48
戰@@ 48
系@@ 48
蘇@@ 48
警@@ 48
뤼@@ 48
뻤@@ 48
쉰 48
촬@@ 48
픈@@ 48
흑 48
กุม@@ 47
ทธิ 47
บรวม@@ 47
อุต@@ 47
ในทางกลับ@@ 47
四@@ 47
接@@ 47
準@@ 47
設@@ 47
걔@@ 47
곰 47
뇨@@ 47
닳@@ 47
랜 47
몬 47
밑 47
빳@@ 47
삐 47
싰@@ 47
씀@@ 47
텅@@ 47
톱 47
팥@@ 47
픔 47
흔 47
李@@ 47
ฝังศพ@@ 46
ศัพท 46
อังก@@ 46
เกียร@@ 46
แรงบันดาล@@ 46
แลก@@ 46
‘ 46
北@@ 46
友@@ 46
士@@ 46
植 46
江@@ 46
營@@ 46
說@@ 46
錫@@ 46
갗@@ 46
낌 46
뷰 46
섶@@ 46
챔@@ 46
혈 46
ภรร@@ 45
อึด@@ 45
㎢ 45
功@@ 45
換@@ 45
聖@@ 45
英@@ 45
處@@ 45
象@@ 45
룩 45
븐 45
텃@@ 45
핥@@ 45
นุษ@@ 44
สังคมน@@ 44
ิดี@@ 44
㎥ 44
務@@ 44
慧@@ 44
見@@ 44
需@@ 44
音@@ 44
預@@ 44
꽤@@ 44
뉜@@ 44
댐@@ 44
땀 44
먹 44
셀 44
셉@@ 44
숯@@ 44
썹 44
엊@@ 44
월드@@ 44
짱 44
쬐@@ 44
콤 44
횃@@ 44
ชนะเล@@ 43
ทัด@@ 43
พยาย@@ 43
ุษ@@ 43
位@@ 43
向@@ 43
直@@ 43
觀@@ 43
貸@@ 43
非@@ 43
꿋@@ 43
끽@@ 43
늪@@ 43
륨@@ 43
벼 43
보다@@ 43
뺀 43
셈 43
얀@@ 43
엾@@ 43
촘@@ 43
팬 43
不@@ 43
ฒ 42
ศีรษ@@ 42
住@@ 42
保@@ 42
始@@ 42
悟@@ 42
木@@ 42
益@@ 42
祭@@ 42
種@@ 42
議@@ 42
賢@@ 42
鄕@@ 42
냔 42
눴@@ 42
륨 42
뻑@@ 42
뽕@@ 42
쏙 42
엉 42
푹@@ 42
헉@@ 42
ทธ 41
บรรยาก@@ 41
มานี 41
มีทางเลือก@@ 41
อวก@@ 41
เทค@@ 41
เทคน@@ 41
他@@ 41
傳@@ 41
力@@ 41
千@@ 41
姜@@ 41
後@@ 41
春@@ 41
模@@ 41
沙@@ 41
興@@ 41
色@@ 41
解@@ 41
꺽@@ 41
넸@@ 41
뭣 41
빡 41
뺑@@ 41
뼛@@ 41
윈 41
 41
กำเน@@ 40
ฌ@@ 40
บบุหรี 40
ฝีปาก@@ 40
伐@@ 40
來@@ 40
債@@ 40
受@@ 40
可@@ 40
宋@@ 40
星@@ 40
景@@ 40
智@@ 40
苦@@ 40
閔@@ 40
겡@@ 40
껄 40
꽁 40
똑 40
뢰 40
뤄@@ 40
빨 40
씁@@ 40
짢@@ 40
췌@@ 40
จารย 39
ตึง@@ 39
ประโย@@ 39
‥ 39
君@@ 39
洞 39
流@@ 39
熙@@ 39
等@@ 39
終@@ 39
給@@ 39
記@@ 39
겅@@ 39
겋@@ 39
꿨@@ 39
놔 39
뜩 39
맙@@ 39
밴 39
뿍 39
쉬 39
슘@@ 39
쐬@@ 39
웂@@ 39
챘@@ 39
컨 39
펜 39
홱 39
ธรรมนู@@ 38
บุคล@@ 38
เถอะ 38
哲@@ 38
增@@ 38
川 38
川@@ 38
死@@ 38
盧 38
緣@@ 38
總@@ 38
而@@ 38
辭@@ 38
隨@@ 38
雲@@ 38
鮮@@ 38
가볍@@ 38
겔 38
꺄 38
뀔 38
낄 38
넨@@ 38
뉴 38
댐 38
뚤@@ 38
렐@@ 38
렘@@ 38
룰@@ 38
샛@@ 38
슥@@ 38
짠@@ 38
찐@@ 38
컴 38
팩 38
ัทธิ@@ 37
เงย@@ 37
โฆษ@@ 37
➏ 37
㎡ 37
仙@@ 37
値@@ 37
失@@ 37
寂@@ 37
念@@ 37
玉@@ 37
督@@ 37
節@@ 37
華@@ 37
院@@ 37
頭@@ 37
體@@ 37
꽹@@ 37
뫼@@ 37
슐@@ 37
왁@@ 37
왓@@ 37
짬@@ 37
쿄 37
톰@@ 37
휠@@ 37
กระทรวงศึกษา@@ 36
ครอบง@@ 36
อุณห@@ 36
人 36
八@@ 36
形@@ 36
惡@@ 36
株@@ 36
素@@ 36
與@@ 36
農@@ 36
鎭@@ 36
귄 36
납 36
놋@@ 36
농 36
덫@@ 36
듬 36
띠 36
몰 36
밧@@ 36
소프@@ 36
쉰@@ 36
쉼@@ 36
었 36
킷@@ 36
톰 36
ทันใด@@ 35
ประส@@ 35
ออส@@ 35
ุต@@ 35
十@@ 35
土@@ 35
太@@ 35
孫@@ 35
族@@ 35
朱@@ 35
用 35
甲@@ 35
界@@ 35
福@@ 35
秉@@ 35
究@@ 35
聲@@ 35
行 35
궈@@ 35
녁@@ 35
뛸 35
멘 35
뺀@@ 35
얄 35
줌 35
쫄@@ 35
탐 35
틈 35
펨@@ 35
 35
กลาโ@@ 34
นสะเท@@ 34
พิธีก@@ 34
รัฐธรรมนู@@ 34
าวอีก@@ 34
เคาร@@ 34
เหรีย@@ 34
ไตร@@ 34
ᄀ@@ 34
代@@ 34
以@@ 34
斯@@ 34
洙 34
統@@ 34
道 34
곶@@ 34
꺼 34
낱 34
댓 34
럿 34
슴 34
얀 34
콕@@ 34
팍 34
헹@@ 34
흐 34
_ 33
ดาล@@ 33
ทรัพยาก@@ 33
บริจ@@ 33
ประเม@@ 33
วิก@@ 33
หยัด@@ 33
ให@@ 33
交@@ 33
付@@ 33
任@@ 33
史 33
命@@ 33
城 33
報@@ 33
州 33
指@@ 33
整@@ 33
異@@ 33
끊임@@ 33
랏@@ 33
므@@ 33
벤 33
븐@@ 33
쁜@@ 33
짠 33
컹@@ 33
켄@@ 33
탬@@ 33
훅 33
힙@@ 33
พิวเตอร 32
ภัณ@@ 32
าวล@@ 32
ูรณ 32
เอเช@@ 32
係@@ 32
共@@ 32
券@@ 32
律@@ 32
手@@ 32
期@@ 32
煥@@ 32
禮@@ 32
老@@ 32
聯@@ 32
面@@ 32
꼈@@ 32
됩@@ 32
딕@@ 32
떻@@ 32
쌔@@ 32
씸@@ 32
였 32
쩨@@ 32
퉁 32
펙@@ 32
กอฮอล 31
允@@ 31
勢@@ 31
女@@ 31
尙@@ 31
帝@@ 31
從@@ 31
承@@ 31
畵@@ 31
米@@ 31
腦@@ 31
許@@ 31
食@@ 31
魚@@ 31
괭@@ 31
냄 31
딨@@ 31
띈@@ 31
롤 31
빼 31
뺐@@ 31
샷@@ 31
앗 31
촐@@ 31
켓 31
툰 31
퍽@@ 31
펭@@ 31
폼 31
흠 31
ญญา@@ 30
ตำรว@@ 30
พาก@@ 30
ละเม@@ 30
ㅅ@@ 30
一 30
伊@@ 30
備@@ 30
反@@ 30
妄@@ 30
寺@@ 30
德 30
改@@ 30
松@@ 30
植@@ 30
武@@ 30
洞@@ 30
淳@@ 30
策@@ 30
純@@ 30
門 30
額@@ 30
곯@@ 30
닉 30
떼 30
뗏@@ 30
룽@@ 30
볐@@ 30
뻘 30
쁨 30
쯔@@ 30
찹@@ 30
캔 30
켤@@ 30
ทักษ@@ 29
ฬิก@@ 29
ไห@@ 29
九@@ 29
兵@@ 29
宅@@ 29
察@@ 29
師@@ 29
應@@ 29
日 29
泊@@ 29
滿@@ 29
百@@ 29
約@@ 29
酒@@ 29
里 29
뀌@@ 29
끙@@ 29
닛@@ 29
돛@@ 29
뼉@@ 29
슘 29
슛 29
잇 29
죠@@ 29
챈 29
컥@@ 29
퀘@@ 29
텝@@ 29
펐@@ 29
핫 29
헉 29
혓@@ 29
ยุทธ 28
สมัช@@ 28
ะแน@@ 28
勞@@ 28
印@@ 28
口@@ 28
多@@ 28
將@@ 28
建@@ 28
志@@ 28
想@@ 28
慶@@ 28
爭@@ 28
目@@ 28
章@@ 28
臣@@ 28
良@@ 28
草@@ 28
깻@@ 28
꿍@@ 28
낭 28
댜 28
륜 28
맏@@ 28
멀 28
몫 28
몽 28
묘 28
이른@@ 28
잭 28
쨍@@ 28
쩜 28
쿡 28
텀 28
텐 28
틋@@ 28
틸 28
픔@@ 28
홈 28
훨@@ 28
휑@@ 28
คณิต@@ 27
ัญ 27
▹ 27
危@@ 27
圭@@ 27
均@@ 27
沈@@ 27
澤@@ 27
火@@ 27
趣@@ 27
野@@ 27
雅@@ 27
껐@@ 27
꿩@@ 27
낑@@ 27
냘@@ 27
뉘 27
덩 27
돔 27
땠@@ 27
램 27
랭 27
묽@@ 27
벵@@ 27
볏@@ 27
뽐@@ 27
샘 27
솥 27
젤 27
쥬@@ 27
찐 27
팸@@ 27
펫@@ 27
흡 27
樂@@ 27
ยาล@@ 26
หาวิท@@ 26
ียร@@ 26
โนม@@ 26
化 26
味@@ 26
員@@ 26
喜@@ 26
團@@ 26
奇@@ 26
害@@ 26
忠@@ 26
支 26
未@@ 26
材@@ 26
桂@@ 26
治@@ 26
漸@@ 26
現@@ 26
當@@ 26
船@@ 26
表@@ 26
證@@ 26
谷@@ 26
貞@@ 26
過@@ 26
里@@ 26
金 26
黑@@ 26
귄@@ 26
깼@@ 26
뎌 26
땄@@ 26
떨 26
뗄 26
뚱 26
맘 26
몄@@ 26
뮬@@ 26
볕 26
섯 26
쇳@@ 26
숍@@ 26
쉴@@ 26
썬 26
윽 26
퀸@@ 26
큘@@ 26
튕@@ 26
퓨@@ 26
กิจ 25
ตราบ@@ 25
อลล@@ 25
ิษ@@ 25
ือง 25
เหร@@ 25
㎖ 25
企@@ 25
去@@ 25
居@@ 25
弘@@ 25
易@@ 25
東 25
氏@@ 25
求@@ 25
淡@@ 25
減@@ 25
炳@@ 25
竹@@ 25
美 25
虛@@ 25
起@@ 25
鐵@@ 25
곽 25
긔@@ 25
꽈@@ 25
뀐@@ 25
넬 25
땐@@ 25
랙 25
맀@@ 25
셜@@ 25
쐐@@ 25
쓱 25
앨 25
옅@@ 25
옴 25
있 25
쟤@@ 25
쩐 25
쭐@@ 25
쯧@@ 25
칵@@ 25
펑 25
ｍ@@ 25
คมน@@ 24
ฎ 24
ระง@@ 24
ฤษ@@ 24
ฤษฎ@@ 24
สื@@ 24
ือรือร 24
แหน 24
ㅅ 24
便@@ 24
個@@ 24
儒@@ 24
內 24
周@@ 24
塵@@ 24
己@@ 24
引@@ 24
感@@ 24
柳@@ 24
條@@ 24
樂 24
母@@ 24
神 24
筆@@ 24
紙@@ 24
習@@ 24
視@@ 24
넬@@ 24
뗐@@ 24
밌@@ 24
뻥@@ 24
쏜@@ 24
펌@@ 24
펼 24
훨 24
คาบสม@@ 23
อาก@@ 23
ัชนี@@ 23
ᆼ@@ 23
ᆽ@@ 23
ℓ@@ 23
中 23
使@@ 23
句@@ 23
吉@@ 23
堂@@ 23
好@@ 23
島@@ 23
廣@@ 23
愛@@ 23
房@@ 23
故@@ 23
昇@@ 23
書 23
案@@ 23
梁@@ 23
決@@ 23
浦@@ 23
淨@@ 23
熙 23
特@@ 23
玄@@ 23
考@@ 23
融 23
親@@ 23
赤@@ 23
足@@ 23
近@@ 23
釋@@ 23
險@@ 23
靜@@ 23
骨@@ 23
鳳@@ 23
껑 23
뎀@@ 23
뎃@@ 23
띤@@ 23
믐@@ 23
비로@@ 23
숴@@ 23
싼@@ 23
아름@@ 23
젠 23
즙 23
칡@@ 23
콘 23
쾅 23
펫 23
핫@@ 23
홑@@ 23
บรรพ@@ 22
พิธ@@ 22
ภิบ@@ 22
มนุษ@@ 22
ระฆ@@ 22
เกลียดช@@ 22
⑦ 22
丁@@ 22
乙@@ 22
妙@@ 22
委@@ 22
寶@@ 22
布@@ 22
幻@@ 22
心 22
恩@@ 22
援@@ 22
放@@ 22
斗@@ 22
殺@@ 22
洙@@ 22
皇@@ 22
移@@ 22
稅@@ 22
端@@ 22
精@@ 22
衆@@ 22
衣@@ 22
貨 22
迷@@ 22
達@@ 22
量@@ 22
雄@@ 22
餘@@ 22
굿 22
껏@@ 22
꾸 22
딧@@ 22
떵@@ 22
빚 22
삭 22
삯@@ 22
싱 22
쓰 22
쟝 22
젖 22
짤 22
켠 22
콱 22
쿠 22
킥 22
팻@@ 22
헛 22
헸@@ 22
훌 22
露@@ 22
สุทธิ 21
หลีก@@ 21
ใหล@@ 21
㈜ 21
七@@ 21
乾@@ 21
具@@ 21
利 21
卽@@ 21
孝@@ 21
推@@ 21
曲@@ 21
林 21
柱@@ 21
派@@ 21
結@@ 21
舊@@ 21
般@@ 21
薄@@ 21
藥@@ 21
衙@@ 21
諸@@ 21
識@@ 21
那@@ 21
際@@ 21
鷄@@ 21
黨@@ 21
겊@@ 21
깃 21
깄@@ 21
녘 21
뎠@@ 21
샌 21
찔 21
캅@@ 21
컴퓨@@ 21
컹 21
쿡@@ 21
텨@@ 21
 21
รักษ 20
อลลาร 20
เศ@@ 20
โปรง@@ 20
☎ 20
今@@ 20
俊 20
倭@@ 20
兜@@ 20
吾@@ 20
喪@@ 20
器@@ 20
坐@@ 20
天 20
完@@ 20
宗 20
寫@@ 20
尊@@ 20
巨@@ 20
敬@@ 20
果@@ 20
榮 20
牛@@ 20
祖@@ 20
競@@ 20
算@@ 20
綜@@ 20
輕@@ 20
逆@@ 20
還@@ 20
錢@@ 20
陰@@ 20
龍 20
괄 20
깅@@ 20
뜀@@ 20
뷔 20
숭 20
쉐@@ 20
쏴@@ 20
엣 20
엿 20
좆 20
쥑@@ 20
쫑@@ 20
캉@@ 20
콕 20
쾅@@ 20
홧@@ 20
羅@@ 20
老@@ 20
： 20
\ 19
ประดิ@@ 19
รุน@@ 19
ลัพธ 19
เกษีย@@ 19
ํ@@ 19
◎ 19
令@@ 19
何@@ 19
借@@ 19
像@@ 19
僧@@ 19
參@@ 19
威@@ 19
婦@@ 19
宇@@ 19
官 19
宿@@ 19
密@@ 19
就@@ 19
巫@@ 19
康@@ 19
擧@@ 19
文 19
斷@@ 19
於@@ 19
村@@ 19
某@@ 19
根 19
極@@ 19
欲@@ 19
此@@ 19
永 19
法 19
活@@ 19
浩 19
短@@ 19
禁@@ 19
縣@@ 19
置@@ 19
職@@ 19
菩@@ 19
落@@ 19
譯@@ 19
貧@@ 19
附@@ 19
靈@@ 19
鳥@@ 19
굼@@ 19
넛 19
넝@@ 19
닻@@ 19
뗀 19
띵@@ 19
랩 19
렛 19
멈 19
뭄@@ 19
벳 19
빤 19
뻐 19
뼘@@ 19
뽁@@ 19
쯧 19
찍 19
첨 19
켈 19
퀭@@ 19
핌@@ 19
햄 19
헤 19
ö@@ 18
ทัศนค@@ 18
ประเพ@@ 18
วยอร 18
เผชิ@@ 18
เลขานุ@@ 18
下 18
丙@@ 18
假@@ 18
儀@@ 18
又@@ 18
唐@@ 18
圓@@ 18
圖@@ 18
型@@ 18
客@@ 18
寅@@ 18
局@@ 18
惱@@ 18
拜@@ 18
明 18
普@@ 18
服@@ 18
末@@ 18
楊@@ 18
次@@ 18
毛@@ 18
秀@@ 18
藤@@ 18
覺@@ 18
訓@@ 18
貴@@ 18
超@@ 18
路@@ 18
軍 18
那 18
錫 18
鎬@@ 18
院 18
願@@ 18
首@@ 18
鴻@@ 18
點@@ 18
귤@@ 18
깍 18
꼰@@ 18
됨 18
뒈@@ 18
뒷 18
듦@@ 18
떤 18
뛴@@ 18
멸 18
밈@@ 18
빅 18
빽 18
뺨 18
쏜 18
씰@@ 18
앰@@ 18
짭@@ 18
쫙 18
챌 18
틔@@ 18
폄@@ 18
핼@@ 18
 18
參@@ 18
° 17
บุค@@ 17
ประธานาธิบ@@ 17
ศี@@ 17
หรี 17
ัณฑ@@ 17
ุหรี 17
แปลง 17
ᄇ@@ 17
ᆯ 17
上 17
云@@ 17
亨@@ 17
件@@ 17
供@@ 17
兩@@ 17
六@@ 17
單@@ 17
塗@@ 17
奎@@ 17
孔@@ 17
富@@ 17
寒@@ 17
寬@@ 17
差@@ 17
恒@@ 17
憲 17
標@@ 17
樹@@ 17
比@@ 17
民 17
水 17
浮@@ 17
照@@ 17
男@@ 17
盟@@ 17
科@@ 17
穀@@ 17
第@@ 17
縣 17
胡@@ 17
英 17
虎@@ 17
衛@@ 17
退@@ 17
逸@@ 17
遠@@ 17
適@@ 17
遺@@ 17
阿@@ 17
集@@ 17
難@@ 17
雨@@ 17
領@@ 17
題@@ 17
갱 17
깽@@ 17
껀@@ 17
낟@@ 17
넉 17
넙@@ 17
녁 17
닒 17
맸@@ 17
뭍@@ 17
빔@@ 17
섀@@ 17
셜 17
쏭@@ 17
앳@@ 17
웁@@ 17
쪄@@ 17
첸@@ 17
켁@@ 17
콥@@ 17
쿤@@ 17
퀀@@ 17
툇@@ 17
 17
梁@@ 17
คาม@@ 16
คำนว@@ 16
เยา@@ 16
㏄ 16
乘@@ 16
伯@@ 16
侍@@ 16
信 16
倉@@ 16
動 16
善 16
央@@ 16
學 16
怨@@ 16
愚@@ 16
戒@@ 16
技@@ 16
新 16
旅@@ 16
洋@@ 16
浩@@ 16
淵@@ 16
炯@@ 16
疑@@ 16
盡@@ 16
眼@@ 16
破@@ 16
臨@@ 16
致@@ 16
舍@@ 16
語 16
遊@@ 16
錦@@ 16
離@@ 16
震@@ 16
麗@@ 16
갤 16
겅 16
궐 16
꼍@@ 16
끙 16
마자 16
뮌@@ 16
뱀 16
뱅 16
봇 16
뺌@@ 16
셉 16
쌩@@ 16
없 16
윙 16
캡@@ 16
쿨 16
킷 16
헷@@ 16
＝ 16
¨ 15
½ 15
ธนา@@ 15
อัคร@@ 15
อัครราช@@ 15
⑧ 15
ト@@ 15
九 15
事 15
佐@@ 15
來 15
倫@@ 15
勝@@ 15
取@@ 15
場 15
士 15
壽@@ 15
守@@ 15
少@@ 15
峴 15
廷@@ 15
强@@ 15
悲@@ 15
惠@@ 15
慕@@ 15
憂@@ 15
憲@@ 15
提@@ 15
散@@ 15
桓@@ 15
橋@@ 15
武 15
段@@ 15
毋@@ 15
渡@@ 15
燮 15
理 15
瑞@@ 15
生 15
盛@@ 15
社 15
禹@@ 15
經 15
線@@ 15
編@@ 15
若@@ 15
莊@@ 15
豫@@ 15
買@@ 15
賤@@ 15
載@@ 15
辛@@ 15
邪@@ 15
長 15
隊@@ 15
雙@@ 15
頓@@ 15
飛@@ 15
飮@@ 15
같 15
굽 15
긔 15
꿎@@ 15
넛@@ 15
됴 15
딤@@ 15
떫@@ 15
랫 15
륭@@ 15
맬 15
멜 15
뺄 15
뿔 15
샨@@ 15
셸@@ 15
숍 15
쌍 15
옹 15
챗@@ 15
툰@@ 15
 15
六@@ 15
利@@ 15
行@@ 15
= 14
ü@@ 14
ฑ 14
พิพิธ@@ 14
สืบท@@ 14
อำนวยความ@@ 14
เคลียร 14
เวณ@@ 14
ケ@@ 14
丹@@ 14
也 14
伏@@ 14
典@@ 14
判@@ 14
吉 14
圭 14
季@@ 14
孤@@ 14
平 14
度 14
庫@@ 14
懷@@ 14
成 14
敎 14
旨@@ 14
旭@@ 14
泉@@ 14
海 14
淑 14
深@@ 14
熊@@ 14
獄@@ 14
産 14
田 14
秀 14
童@@ 14
紅@@ 14
義 14
耶@@ 14
脫@@ 14
至@@ 14
臺@@ 14
良 14
茶@@ 14
菜@@ 14
著@@ 14
途@@ 14
鄧@@ 14
鎬 14
顯@@ 14
體 14
鬼@@ 14
麟@@ 14
겹 14
귤 14
눔 14
뛴 14
믹 14
셴@@ 14
앎@@ 14
왜냐@@ 14
윷@@ 14
잡 14
쭈 14
츄@@ 14
톨 14
퉈 14
튬 14
팜@@ 14
팼@@ 14
來@@ 14
復@@ 14
ｍ 14
² 13
é@@ 13
ขสิทธิ 13
ซอฟ@@ 13
ทนา@@ 13
นายกรัฐ@@ 13
ภาษณ 13
มีนา@@ 13
ฬ 13
อนาค@@ 13
อิทธิ@@ 13
亂@@ 13
列@@ 13
午@@ 13
告@@ 13
問@@ 13
固@@ 13
地 13
基 13
夏@@ 13
奏@@ 13
婚@@ 13
宣@@ 13
寧@@ 13
尸@@ 13
岩@@ 13
徵@@ 13
態@@ 13
慾@@ 13
打@@ 13
持@@ 13
操@@ 13
效@@ 13
敵@@ 13
望@@ 13
本 13
李 13
査@@ 13
校@@ 13
梅@@ 13
橋 13
機 13
正 13
氣 13
津@@ 13
湖@@ 13
溝@@ 13
澤 13
灣@@ 13
燈@@ 13
燮@@ 13
父@@ 13
王 13
知 13
祝@@ 13
秋@@ 13
窮@@ 13
納@@ 13
裕@@ 13
角@@ 13
記 13
試@@ 13
謀@@ 13
護@@ 13
販@@ 13
遇@@ 13
陀@@ 13
限@@ 13
除@@ 13
陶@@ 13
電@@ 13
韓 13
黨 13
갉@@ 13
갠 13
걱 13
겊 13
겟@@ 13
괸 13
깅 13
깟 13
꽉@@ 13
꽝 13
낙 13
넜@@ 13
렘 13
룸 13
밍 13
벳@@ 13
봬@@ 13
뻔 13
쎈@@ 13
씽@@ 13
앴@@ 13
쟤 13
켕@@ 13
큐 13
탉@@ 13
텄@@ 13
팁@@ 13
兩@@ 13
類@@ 13
理@@ 13
切@@ 13
กระนั 12
ตรงกัน@@ 12
มพ 12
ลักษ@@ 12
เจริ@@ 12
ᄃ@@ 12
ⅱ@@ 12
ⓛ@@ 12
〃 12
ホ@@ 12
云 12
亡@@ 12
京 12
傳 12
初@@ 12
制 12
劃@@ 12
區@@ 12
受 12
司@@ 12
名 12
哲 12
嗜@@ 12
嚴@@ 12
回@@ 12
園@@ 12
團 12
堂 12
夏 12
夷@@ 12
家 12
寧 12
峰@@ 12
崇@@ 12
府 12
廛@@ 12
延@@ 12
數 12
料@@ 12
施@@ 12
旭 12
晋@@ 12
朴 12
杖@@ 12
械@@ 12
狀@@ 12
率 12
略@@ 12
病@@ 12
皆@@ 12
示@@ 12
範 12
範@@ 12
綱@@ 12
緊@@ 12
罪@@ 12
舞@@ 12
荷@@ 12
號@@ 12
被@@ 12
裝@@ 12
託@@ 12
誘@@ 12
誠@@ 12
說 12
講@@ 12
選@@ 12
郡@@ 12
郭@@ 12
閣@@ 12
陳@@ 12
隆@@ 12
雄 12
露@@ 12
順 12
領 12
養@@ 12
魔@@ 12
鶴@@ 12
齋@@ 12
齒@@ 12
걔 12
깡 12
껀 12
낯 12
늪 12
닢@@ 12
돔@@ 12
딕 12
땟@@ 12
띈 12
뵐 12
샐 12
셸 12
솜 12
슭 12
쌘@@ 12
썽 12
씽 12
왼 12
웰 12
웹@@ 12
윗 12
잰@@ 12
잼@@ 12
쟈@@ 12
젓 12
젼 12
쫀@@ 12
쳇 12
캤@@ 12
콰@@ 12
쾨@@ 12
킁@@ 12
탯@@ 12
톳@@ 12
팎 12
팥 12
퐁@@ 12
樂@@ 12
dai 11
คาบ@@ 11
มิวน@@ 11
วเตอร 11
ฮาจ@@ 11
ัท 11
ᆫ 11
ⅰ@@ 11
久@@ 11
元 11
再@@ 11
冠@@ 11
刑@@ 11
別 11
各@@ 11
呂@@ 11
和 11
哀@@ 11
品 11
域@@ 11
大 11
夫 11
奉@@ 11
定 11
室@@ 11
宰 11
宰@@ 11
專@@ 11
屋@@ 11
役@@ 11
怪@@ 11
慈@@ 11
戌@@ 11
才@@ 11
救@@ 11
料 11
暗@@ 11
村 11
歸@@ 11
殘@@ 11
殿@@ 11
江 11
淑@@ 11
溪@@ 11
漁@@ 11
炭@@ 11
煩@@ 11
燒@@ 11
狂@@ 11
相 11
省 11
翼@@ 11
耶 11
腦 11
萬 11
藏@@ 11
血@@ 11
術@@ 11
褶 11
詩 11
謙@@ 11
讀@@ 11
負@@ 11
財 11
貿@@ 11
賃@@ 11
資 11
述@@ 11
鄕 11
鑑@@ 11
隱@@ 11
香@@ 11
귐@@ 11
껌 11
꽥 11
꽥@@ 11
됫@@ 11
똘 11
렐 11
렜@@ 11
므 11
뻥 11
숀 11
쌈 11
씰 11
옭@@ 11
좍 11
짚 11
짰@@ 11
챈@@ 11
쵸@@ 11
콧 11
탱 11
텼@@ 11
홰@@ 11
흄@@ 11
 11
 11
勞@@ 11
路@@ 11
＋ 11
+ 10
chosun@@ 10
ิการ@@ 10
เสถ@@ 10
┞ 10
□ 10
☆ 10
㏊ 10
丈@@ 10
主 10
乃@@ 10
之 10
了@@ 10
井@@ 10
低@@ 10
使 10
凡@@ 10
副@@ 10
力 10
勢 10
半@@ 10
南 10
博@@ 10
及@@ 10
合 10
吏@@ 10
唱@@ 10
墨@@ 10
奎 10
存@@ 10
寺 10
嶺@@ 10
庚@@ 10
座@@ 10
廟@@ 10
廢@@ 10
弱@@ 10
影@@ 10
待@@ 10
御@@ 10
必@@ 10
急@@ 10
惑@@ 10
擔@@ 10
星 10
楚@@ 10
步@@ 10
毒@@ 10
求 10
池@@ 10
波@@ 10
洛@@ 10
混@@ 10
測@@ 10
烈@@ 10
牧@@ 10
狗@@ 10
甘@@ 10
由@@ 10
瘡@@ 10
登@@ 10
着@@ 10
石 10
砲@@ 10
硏@@ 10
禪 10
稱@@ 10
空 10
管@@ 10
紀@@ 10
罰@@ 10
耳@@ 10
聖 10
蒙@@ 10
蒼@@ 10
薩@@ 10
補@@ 10
要 10
認@@ 10
謠@@ 10
費 10
越@@ 10
車@@ 10
追@@ 10
配@@ 10
鉉@@ 10
鎭 10
鐘@@ 10
關 10
陵@@ 10
頑@@ 10
館@@ 10
駕@@ 10
魂@@ 10
鹽@@ 10
겝@@ 10
곪@@ 10
궈 10
낍@@ 10
댈@@ 10
뎁@@ 10
둠 10
땔@@ 10
땡 10
뚜 10
뜨 10
띨 10
랠@@ 10
렵 10
삽 10
싯 10
얏@@ 10
엥@@ 10
옻@@ 10
융 10
잴 10
쥘 10
쩝@@ 10
츰@@ 10
캑@@ 10
퀵@@ 10
텍 10
폿@@ 10
핍 10
휠 10
 10
 10
亂@@ 10
柳@@ 10
univer@@ 9
ปราม@@ 9
ยาภิบ@@ 9
ⅲ@@ 9
ⓛ 9
▨ 9
㎾ 9
二 9
亭@@ 9
伽@@ 9
健@@ 9
傷@@ 9
優@@ 9
刀@@ 9
劉@@ 9
劍@@ 9
劫@@ 9
勳 9
卵@@ 9
卿@@ 9
原 9
只@@ 9
召@@ 9
叱@@ 9
吟@@ 9
否@@ 9
呪@@ 9
喆@@ 9
囚@@ 9
在 9
夜@@ 9
夢@@ 9
宦@@ 9
宮@@ 9
寸@@ 9
展@@ 9
左@@ 9
巷@@ 9
廳@@ 9
式 9
弼@@ 9
後 9
徒@@ 9
微@@ 9
快@@ 9
悅@@ 9
悠@@ 9
患@@ 9
惱 9
意 9
愚 9
或@@ 9
昧@@ 9
柱 9
格 9
檢@@ 9
死 9
沃@@ 9
滋@@ 9
潛@@ 9
熱@@ 9
獻@@ 9
班@@ 9
甲 9
祖 9
祥@@ 9
細@@ 9
組@@ 9
聞@@ 9
背@@ 9
色 9
荒@@ 9
蔡@@ 9
衰@@ 9
計 9
註@@ 9
豪@@ 9
賊@@ 9
趨@@ 9
部 9
醫@@ 9
銅@@ 9
鎔 9
鏡@@ 9
防@@ 9
陣@@ 9
陸@@ 9
階@@ 9
隔@@ 9
雨 9
雲 9
震 9
駐@@ 9
高 9
魚 9
鳴@@ 9
齊@@ 9
곬@@ 9
궜@@ 9
깰 9
꼽 9
꿍 9
꿩 9
녜 9
눙@@ 9
늉 9
닢 9
대통@@ 9
뙤@@ 9
띌 9
랠 9
뮈@@ 9
뱁@@ 9
붓 9
빻@@ 9
뼁@@ 9
샜@@ 9
쉭@@ 9
슝@@ 9
않 9
옌 9
옌@@ 9
웜 9
윌 9
쥬 9
쭤@@ 9
쳇@@ 9
칩 9
캐 9
탭@@ 9
텀@@ 9
팝 9
팸 9
팽 9
펩@@ 9
흉 9
 9
車@@ 9
綠@@ 9
年@@ 9
禮@@ 9
ชิก@@ 8
ทบท@@ 8
พาณิช@@ 8
ᄆ@@ 8
ᄒ@@ 8
⑪ 8
㎍ 8
于@@ 8
五 8
仰@@ 8
似@@ 8
佳@@ 8
側@@ 8
傭@@ 8
僑@@ 8
償@@ 8
免@@ 8
冬@@ 8
刺@@ 8
助@@ 8
勳@@ 8
協@@ 8
厚@@ 8
友 8
台@@ 8
右@@ 8
后@@ 8
咸@@ 8
員 8
哭@@ 8
土 8
坤@@ 8
坪@@ 8
執@@ 8
壇@@ 8
妃@@ 8
姬@@ 8
婦 8
嫡@@ 8
字 8
安 8
審@@ 8
屈@@ 8
屬@@ 8
島 8
巴@@ 8
年 8
幽@@ 8
序@@ 8
店@@ 8
庭@@ 8
庶@@ 8
彼@@ 8
律 8
忘@@ 8
情 8
惟@@ 8
愛 8
慮@@ 8
慶 8
捕@@ 8
擊@@ 8
擴@@ 8
政 8
昏@@ 8
曰 8
曲 8
月 8
木 8
材 8
梗@@ 8
梵@@ 8
樓@@ 8
氏 8
油@@ 8
泉 8
注@@ 8
淫@@ 8
淳 8
滿 8
潤@@ 8
潮@@ 8
濤 8
炎@@ 8
獸@@ 8
球@@ 8
疾@@ 8
盜@@ 8
碑@@ 8
祠@@ 8
秘@@ 8
租@@ 8
稅 8
稼@@ 8
稿@@ 8
穆@@ 8
積@@ 8
粉@@ 8
紫@@ 8
絶@@ 8
耐@@ 8
肉@@ 8
胎@@ 8
衝@@ 8
衣 8
複@@ 8
象 8
送@@ 8
逐@@ 8
速@@ 8
連@@ 8
郞@@ 8
醜@@ 8
重 8
野 8
鍊@@ 8
鑑 8
鑛@@ 8
閑@@ 8
陀 8
障@@ 8
雜@@ 8
雪@@ 8
騎@@ 8
鳳 8
麻@@ 8
귈 8
뀜@@ 8
낏 8
놉@@ 8
뉜 8
똬@@ 8
멨@@ 8
묏@@ 8
벱@@ 8
빗 8
뽈@@ 8
뽕 8
샹 8
섶 8
숀@@ 8
쌉@@ 8
쏙@@ 8
쑤 8
엠 8
웜@@ 8
윳@@ 8
쩡 8
쪘@@ 8
쫄 8
찜 8
쾰@@ 8
퀸 8
큽@@ 8
킴 8
툴 8
툼 8
퉤 8
한꺼@@ 8
힝@@ 8
郎@@ 8
北@@ 8
靈@@ 8
univers@@ 7
χ 7
χ@@ 7
มัดระ@@ 7
วยเหตุ@@ 7
ัชน@@ 7
ᆼ 7
♬ 7
❿ 7
➈ 7
世 7
亞@@ 7
仲@@ 7
体@@ 7
例@@ 7
促@@ 7
修 7
僞@@ 7
僧 7
儉@@ 7
光 7
入 7
兼@@ 7
初 7
剩@@ 7
創@@ 7
劇@@ 7
占@@ 7
含@@ 7
唯@@ 7
嗟@@ 7
困@@ 7
圖 7
塔@@ 7
境 7
壽 7
女 7
奴@@ 7
好 7
姓@@ 7
姬 7
寄@@ 7
實 7
尋@@ 7
導@@ 7
局 7
屠@@ 7
峴@@ 7
崎@@ 7
師 7
廻@@ 7
張 7
彌@@ 7
往@@ 7
恐@@ 7
憧@@ 7
戚@@ 7
戶@@ 7
拙@@ 7
排@@ 7
揚@@ 7
擾@@ 7
敗@@ 7
整 7
斂@@ 7
斗 7
早@@ 7
春 7
是 7
曹@@ 7
松 7
栗@@ 7
核@@ 7
槿@@ 7
檀@@ 7
殷@@ 7
汪@@ 7
況@@ 7
泰 7
津 7
涉@@ 7
淵 7
淸 7
添@@ 7
澈 7
澹@@ 7
灌@@ 7
無 7
物 7
玉 7
珠@@ 7
瓚@@ 7
甚@@ 7
疏@@ 7
礎@@ 7
禹 7
立 7
竿@@ 7
等 7
籍@@ 7
粱@@ 7
維@@ 7
署@@ 7
育@@ 7
興 7
舜@@ 7
茂@@ 7
衡@@ 7
表 7
裳@@ 7
解 7
訓 7
訣@@ 7
話@@ 7
調 7
請@@ 7
譚@@ 7
谷 7
貪@@ 7
責@@ 7
貰@@ 7
賢 7
賣 7
質@@ 7
贊@@ 7
赫 7
辭 7
達 7
鉉 7
錄@@ 7
鐸 7
閉@@ 7
陽 7
險 7
革@@ 7
項 7
顔@@ 7
飯@@ 7
馥@@ 7
驛@@ 7
驢@@ 7
髮@@ 7
魯@@ 7
갠@@ 7
갰@@ 7
긷@@ 7
꼰 7
뇽@@ 7
눗@@ 7
닒@@ 7
뎀 7
땋@@ 7
뙈@@ 7
뚤 7
라리 7
랖@@ 7
렙@@ 7
렝@@ 7
렷 7
무지 7
뭏@@ 7
벙 7
뵌 7
뵌@@ 7
뵐@@ 7
붐 7
븨@@ 7
뺄@@ 7
뼘 7
뿡@@ 7
셍@@ 7
솎@@ 7
숩@@ 7
쌕@@ 7
쐈@@ 7
얏 7
오랫@@ 7
왈 7
잣 7
잰 7
젼@@ 7
죤@@ 7
즐 7
쩔 7
쭐 7
쭙@@ 7
첸 7
콸@@ 7
퉤@@ 7
햅@@ 7
헨 7
흣 7
히려 7
 7
洛@@ 7
林@@ 7
臨@@ 7
! 6
ñ@@ 6
ถุน@@ 6
บุร@@ 6
ภาคม@@ 6
อสังหาร@@ 6
ᄀ 6
ᄇ 6
ᆫ@@ 6
ⅱ 6
♥ 6
七 6
享@@ 6
介@@ 6
他 6
代 6
休@@ 6
位 6
佛 6
作 6
依@@ 6
侯@@ 6
俱@@ 6
倂 6
倒@@ 6
偏@@ 6
健 6
允 6
典 6
冷@@ 6
切@@ 6
前 6
剛@@ 6
升@@ 6
午 6
卑@@ 6
卷@@ 6
叔@@ 6
同 6
君 6
呼@@ 6
哉@@ 6
喆 6
喜 6
坡@@ 6
堅@@ 6
壯@@ 6
契@@ 6
奪@@ 6
奭@@ 6
妻@@ 6
姿@@ 6
孟@@ 6
完 6
宜@@ 6
宴@@ 6
寔 6
寡@@ 6
尾@@ 6
履@@ 6
崩@@ 6
巡@@ 6
帝 6
幼@@ 6
底@@ 6
庫 6
廛 6
弼 6
忌@@ 6
忍@@ 6
忠 6
恨@@ 6
恭@@ 6
悔@@ 6
悖@@ 6
慧 6
手 6
招@@ 6
振@@ 6
損@@ 6
摩@@ 6
斥@@ 6
旗@@ 6
昊@@ 6
昌 6
映@@ 6
昭@@ 6
晩@@ 6
智 6
暴@@ 6
曆@@ 6
曰@@ 6
更@@ 6
曾@@ 6
杰@@ 6
果 6
枯@@ 6
梳@@ 6
槪@@ 6
模 6
權 6
歡@@ 6
歲@@ 6
歷@@ 6
派 6
渾@@ 6
溝 6
滅@@ 6
漢 6
潤 6
澈@@ 6
激@@ 6
濟 6
灰@@ 6
烏@@ 6
玄 6
珪@@ 6
環@@ 6
甫@@ 6
皮@@ 6
目 6
眠@@ 6
睡@@ 6
祭 6
禮 6
秦@@ 6
窩@@ 6
箕@@ 6
簡@@ 6
緩@@ 6
縮@@ 6
繼@@ 6
群@@ 6
聽@@ 6
能 6
臣 6
舟@@ 6
華 6
葉@@ 6
董@@ 6
蓋@@ 6
蓬@@ 6
虎 6
裵@@ 6
詔@@ 6
誌@@ 6
諺@@ 6
謂@@ 6
謠 6
譜 6
讓@@ 6
讚@@ 6
賞@@ 6
質 6
贈@@ 6
跡@@ 6
路 6
輩@@ 6
輸 6
逢@@ 6
避@@ 6
邪 6
郞 6
都 6
醉@@ 6
醒@@ 6
鎔@@ 6
間 6
闕@@ 6
附 6
集 6
雇@@ 6
面 6
頭 6
顧@@ 6
飾@@ 6
馨@@ 6
鬱@@ 6
黃 6
黄@@ 6
갬@@ 6
곶 6
꼍 6
꿉@@ 6
낫 6
넘 6
넹@@ 6
닛 6
덱@@ 6
돝@@ 6
뗀@@ 6
롭 6
믈@@ 6
샬@@ 6
샵@@ 6
샷 6
쉈@@ 6
슷@@ 6
쏴 6
쑨 6
앵 6
욥@@ 6
웍@@ 6
쨍 6
쩝 6
쪄 6
찟@@ 6
챌@@ 6
캇@@ 6
캬@@ 6
켐@@ 6
텝 6
텨 6
톈@@ 6
튄@@ 6
튤@@ 6
펀 6
푯@@ 6
퓌@@ 6
픕@@ 6
헥@@ 6
홋@@ 6
훅@@ 6
휜 6
휭@@ 6
 6
論@@ 6
率@@ 6
數@@ 6
沈@@ 6
略@@ 6
立@@ 6
ρ@@ 5
จัย@@ 5
ฌ 5
ประชาธิปัตย 5
มนี@@ 5
วัติ@@ 5
ักหน 5
าะห 5
เพลิดเพล@@ 5
ᆯ@@ 5
… 5
ⅰ 5
⑬ 5
♪ 5
》 5
』 5
ㅡ@@ 5
丘@@ 5
乳@@ 5
亭 5
仁 5
仙 5
任 5
伴@@ 5
俗 5
兒@@ 5
全 5
凉@@ 5
出 5
函@@ 5
則 5
募@@ 5
北 5
卓@@ 5
卞@@ 5
卨 5
吐@@ 5
哥@@ 5
喬@@ 5
嘉@@ 5
嘗@@ 5
址@@ 5
坊 5
培@@ 5
塞 5
墓@@ 5
壁@@ 5
夕@@ 5
外 5
奠@@ 5
奸@@ 5
婢@@ 5
嫌@@ 5
宮 5
射@@ 5
展 5
岸@@ 5
帶@@ 5
干@@ 5
幸@@ 5
床@@ 5
廉@@ 5
弛@@ 5
得 5
志 5
怒@@ 5
息@@ 5
想 5
慢@@ 5
扶@@ 5
抄@@ 5
拘@@ 5
提 5
換 5
擎@@ 5
攝@@ 5
敍@@ 5
斌 5
族 5
曼@@ 5
期 5
未 5
染@@ 5
校 5
桎@@ 5
梏@@ 5
歐@@ 5
止@@ 5
沒@@ 5
泌 5
浪@@ 5
湯@@ 5
準 5
瀨@@ 5
災@@ 5
熊 5
熏@@ 5
熟@@ 5
燕@@ 5
營 5
爾@@ 5
犯@@ 5
猛@@ 5
珍@@ 5
珪 5
班 5
琦@@ 5
琿@@ 5
瑕@@ 5
畯 5
白 5
監 5
矣@@ 5
碩@@ 5
祀@@ 5
祚 5
禍@@ 5
福 5
私 5
種 5
穆 5
竝@@ 5
笑@@ 5
笠@@ 5
筆 5
策 5
箱@@ 5
粹@@ 5
約 5
索@@ 5
綸@@ 5
線 5
繁@@ 5
繡@@ 5
繫@@ 5
置 5
耀@@ 5
肥@@ 5
脆@@ 5
脈@@ 5
腎@@ 5
膠@@ 5
舍 5
芳@@ 5
蓮@@ 5
蔘@@ 5
薰@@ 5
藍@@ 5
藜@@ 5
藤 5
裁@@ 5
補 5
西 5
親 5
覽@@ 5
觀 5
訛@@ 5
訴@@ 5
該@@ 5
誤@@ 5
課@@ 5
謝@@ 5
謹@@ 5
貫@@ 5
贊 5
赫@@ 5
走@@ 5
起 5
躍@@ 5
載 5
返@@ 5
迦@@ 5
迫@@ 5
造 5
遂@@ 5
邊@@ 5
邑@@ 5
邦@@ 5
郁 5
郡 5
酸@@ 5
采@@ 5
銀 5
鍾 5
鐵 5
鑄@@ 5
隊 5
露 5
音 5
顚@@ 5
顯 5
餘 5
馨 5
駟@@ 5
騷@@ 5
驅@@ 5
驚@@ 5
魯 5
鮑@@ 5
鳶@@ 5
麟 5
鼓@@ 5
갭 5
겉 5
겡 5
궤 5
깠@@ 5
깬@@ 5
꿏@@ 5
꿴 5
끄 5
냑 5
넋 5
뇽 5
늠 5
댕 5
띵 5
룻 5
뤽 5
멕 5
멧 5
멫 5
몃 5
뫼 5
믱@@ 5
밝 5
밸 5
벡@@ 5
뵉@@ 5
빔 5
뼛 5
뽀 5
뿅@@ 5
쁨@@ 5
삥@@ 5
셌@@ 5
숯 5
숴 5
쉿 5
았 5
웨 5
윅@@ 5
잼 5
젯 5
쥔@@ 5
짇@@ 5
짼@@ 5
쫘@@ 5
쭝@@ 5
쭤 5
찝@@ 5
칡 5
칬@@ 5
캅 5
캉 5
콸 5
쾡@@ 5
툉@@ 5
튈 5
특 5
팡 5
팰@@ 5
퓰@@ 5
했 5
헙@@ 5
헴 5
헴@@ 5
휙@@ 5
힉@@ 5
힛 5
 5
濫@@ 5
弄@@ 5
累@@ 5
便@@ 5
索@@ 5
省@@ 5
列@@ 5
龍@@ 5
暴@@ 5
± 4
¼ 4
÷ 4
˘ 4
ρ 4
กิริ@@ 4
ดาห 4
ถก@@ 4
นัยหนึ 4
พิจาร@@ 4
วิจาร@@ 4
ัตย 4
าคม@@ 4
โฆ@@ 4
ᄎ@@ 4
ᆻ@@ 4
ᆽ 4
⅛ 4
ⅳ@@ 4
⑫ 4
◦ 4
♤ 4
♧ 4
ゲ@@ 4
シ@@ 4
ユ@@ 4
ラ@@ 4
ㅗ@@ 4
ㅣ@@ 4
㎎ 4
乎 4
乎@@ 4
乘 4
亞 4
亥@@ 4
仇@@ 4
今 4
仕@@ 4
件 4
伊 4
俄@@ 4
倍@@ 4
倭 4
倻 4
偉@@ 4
偶@@ 4
傍@@ 4
催@@ 4
債 4
億 4
兎@@ 4
兢@@ 4
兪@@ 4
公 4
兵 4
冊@@ 4
冕@@ 4
凶@@ 4
列 4
券 4
刹@@ 4
刻@@ 4
勃@@ 4
勒@@ 4
勤@@ 4
包@@ 4
匠 4
匠@@ 4
厲@@ 4
及 4
取 4
叢@@ 4
咸 4
哉 4
啓@@ 4
因 4
圍@@ 4
圓 4
均 4
域 4
堯@@ 4
塞@@ 4
墟@@ 4
夷 4
奈@@ 4
奔@@ 4
奴 4
姑@@ 4
姪@@ 4
娛@@ 4
婢 4
守 4
室 4
寃@@ 4
寞@@ 4
尺@@ 4
屯@@ 4
岡@@ 4
峽@@ 4
嶺 4
巢@@ 4
巫 4
已@@ 4
幀@@ 4
幹@@ 4
幾@@ 4
床 4
弊@@ 4
弗@@ 4
弟@@ 4
彦@@ 4
彩@@ 4
征@@ 4
念 4
思 4
悳@@ 4
愁@@ 4
懸@@ 4
戀@@ 4
我 4
戮@@ 4
戰 4
戱@@ 4
戴@@ 4
所 4
拂@@ 4
捷@@ 4
掌@@ 4
掛@@ 4
採@@ 4
措@@ 4
擁@@ 4
據@@ 4
敏@@ 4
敬 4
旣@@ 4
旿@@ 4
昆@@ 4
時 4
晩 4
景 4
暮@@ 4
曺@@ 4
替@@ 4
有 4
朔@@ 4
朝 4
杓 4
杜@@ 4
板@@ 4
柔@@ 4
柴@@ 4
桃@@ 4
梨@@ 4
棄@@ 4
棺 4
極 4
樞@@ 4
樣@@ 4
殉@@ 4
毁@@ 4
汎@@ 4
沼@@ 4
沿@@ 4
注 4
洪 4
港@@ 4
游@@ 4
潔@@ 4
潭 4
澄@@ 4
濬 4
灣 4
火 4
烈 4
煙@@ 4
燦 4
爀 4
爲 4
片@@ 4
牌@@ 4
牽@@ 4
猶@@ 4
獨 4
玆@@ 4
現 4
琯@@ 4
琴@@ 4
瓦@@ 4
町 4
界 4
畓@@ 4
留@@ 4
當 4
疎@@ 4
症@@ 4
發 4
皁@@ 4
益 4
盖@@ 4
盡 4
省@@ 4
眞 4
矩@@ 4
砂@@ 4
碑 4
碧@@ 4
確@@ 4
祐@@ 4
祚@@ 4
祠 4
祺@@ 4
程@@ 4
穩@@ 4
窓@@ 4
竿 4
米 4
粒@@ 4
紅 4
紋@@ 4
紙 4
紛@@ 4
素 4
結 4
綠@@ 4
綿 4
縱@@ 4
缺@@ 4
罷@@ 4
羊@@ 4
羽@@ 4
翔@@ 4
翰 4
翰@@ 4
老 4
考 4
耕@@ 4
聞 4
肅 4
肅@@ 4
肩@@ 4
腐@@ 4
自 4
芬@@ 4
花 4
荀@@ 4
萊@@ 4
蓄@@ 4
藝@@ 4
藩@@ 4
蘇 4
處 4
號 4
蜡@@ 4
蟲@@ 4
蠢@@ 4
袁@@ 4
袞@@ 4
裔@@ 4
觸@@ 4
言 4
話 4
誇@@ 4
誌 4
談@@ 4
諭@@ 4
譜@@ 4
變 4
豁@@ 4
貯@@ 4
賓@@ 4
赦@@ 4
趣 4
身 4
輪@@ 4
辰@@ 4
辱@@ 4
迎@@ 4
透@@ 4
通 4
逸 4
遣@@ 4
遼@@ 4
鈍@@ 4
鉢@@ 4
銃@@ 4
銅 4
錣@@ 4
錤 4
錯@@ 4
鏞@@ 4
閒@@ 4
阪@@ 4
雌@@ 4
雖@@ 4
靈 4
靑 4
飽@@ 4
馥 4
馬 4
驗@@ 4
鬪@@ 4
魏@@ 4
鳩@@ 4
麥 4
龜 4
갭@@ 4
갹@@ 4
걘 4
괌@@ 4
긍 4
긩@@ 4
깟@@ 4
꽹 4
낵@@ 4
냑@@ 4
뇰@@ 4
덫 4
뎅 4
됬@@ 4
듈@@ 4
떵 4
뗑@@ 4
똏 4
똏@@ 4
띨@@ 4
맬@@ 4
멥@@ 4
멫@@ 4
뮴@@ 4
뱄@@ 4
붇@@ 4
뷸@@ 4
빰@@ 4
뽁 4
뿠@@ 4
쁩@@ 4
삑 4
삥 4
샅 4
샨 4
샴 4
셰 4
솟 4
숫 4
숱 4
슉@@ 4
슌@@ 4
슷 4
쌨@@ 4
쌩 4
썸@@ 4
쎄 4
쏠 4
쐐 4
쑈@@ 4
씹 4
옘@@ 4
왌@@ 4
윷 4
읜 4
젭@@ 4
좋 4
좔 4
좔@@ 4
쥘@@ 4
즤 4
짹@@ 4
쫒@@ 4
쭘@@ 4
촨@@ 4
츤@@ 4
캘 4
캥@@ 4
퀵 4
탓 4
탰@@ 4
튈@@ 4
펠 4
풋 4
헵@@ 4
홰 4
훠@@ 4
 4
 4
 4
 4
落@@ 4
冷@@ 4
盧@@ 4
露 4
魯@@ 4
異@@ 4
若@@ 4
良@@ 4
女@@ 4
劣@@ 4
烈@@ 4
嶺@@ 4
例@@ 4
輪@@ 4
宅@@ 4
＆ 4
µ@@ 3
ขื 3
จันท@@ 3
พากษ 3
พึม@@ 3
สถ 3
อะไรขึ 3
ัพท 3
ิตย 3
เทคโน@@ 3
ᄃ 3
ᄒ 3
ᅡ@@ 3
ᆻ 3
ℓ 3
⅓ 3
【 3
】 3
の@@ 3
オ@@ 3
カ@@ 3
ギ 3
ギ@@ 3
ク@@ 3
ニ@@ 3
㎗ 3
㎛ 3
丈 3
丑@@ 3
丞 3
串 3
丸@@ 3
乙 3
乭@@ 3
井 3
亦@@ 3
付 3
令 3
伏 3
但@@ 3
住 3
余@@ 3
侮@@ 3
侵@@ 3
便 3
俠@@ 3
倂@@ 3
値 3
停@@ 3
側 3
傅@@ 3
傑@@ 3
僑 3
僻@@ 3
儼@@ 3
兄@@ 3
充@@ 3
兆@@ 3
克@@ 3
兌@@ 3
兩 3
八 3
共 3
冥@@ 3
判 3
到@@ 3
剛 3
割@@ 3
劃 3
功 3
劣@@ 3
勅@@ 3
勇@@ 3
匡@@ 3
卒@@ 3
卜 3
卯@@ 3
參 3
口 3
古 3
句 3
司 3
向 3
吟 3
呈@@ 3
唄 3
唆@@ 3
商 3
喉@@ 3
喪 3
喫@@ 3
嚴 3
園 3
坤 3
坪 3
塘@@ 3
塚 3
塵 3
塾@@ 3
壓@@ 3
壬@@ 3
夜 3
奇 3
契 3
奮@@ 3
如 3
妓@@ 3
妬@@ 3
妹@@ 3
妾@@ 3
姦@@ 3
姸@@ 3
娘@@ 3
婁 3
婁@@ 3
婆@@ 3
媒@@ 3
宇 3
宙@@ 3
宥@@ 3
寅 3
寥@@ 3
寬 3
寵@@ 3
寶 3
將 3
對 3
屋 3
岐@@ 3
岩 3
岫@@ 3
峯@@ 3
工 3
己 3
布 3
希@@ 3
席@@ 3
常 3
幕 3
幕@@ 3
幻 3
序 3
庸@@ 3
廷 3
弑@@ 3
弓@@ 3
弔@@ 3
弘 3
形 3
彦 3
彰@@ 3
徑@@ 3
復@@ 3
循@@ 3
徹@@ 3
恣@@ 3
愉@@ 3
感 3
愼@@ 3
態 3
憐@@ 3
憑@@ 3
戊@@ 3
房 3
把@@ 3
抗@@ 3
押@@ 3
拈@@ 3
拓@@ 3
振 3
描@@ 3
揭@@ 3
撫@@ 3
攸@@ 3
故 3
敏 3
斜@@ 3
方 3
於 3
昻 3
曠@@ 3
更 3
朋@@ 3
朞@@ 3
杉@@ 3
杭@@ 3
析@@ 3
某 3
査 3
栢@@ 3
桓 3
梁 3
梅 3
梯 3
梯@@ 3
梳 3
棟 3
棟@@ 3
森@@ 3
椿@@ 3
楯 3
榜@@ 3
標 3
樸@@ 3
橫@@ 3
欣@@ 3
款@@ 3
止 3
殊@@ 3
毅@@ 3
氷@@ 3
汚@@ 3
汲@@ 3
沌@@ 3
沖@@ 3
沮@@ 3
泊 3
泗@@ 3
泣@@ 3
洋 3
洛 3
流 3
浦 3
淺@@ 3
渴@@ 3
演@@ 3
潭@@ 3
濁@@ 3
濫@@ 3
然 3
照 3
燾 3
爵 3
牋@@ 3
犀@@ 3
犬@@ 3
狐@@ 3
猿@@ 3
獎@@ 3
玩 3
珍 3
球 3
琬@@ 3
琮@@ 3
申 3
甸 3
畢@@ 3
略 3
畵 3
症 3
痛@@ 3
盆@@ 3
盤@@ 3
眼 3
矢@@ 3
砲 3
碎@@ 3
碧 3
磁@@ 3
磨@@ 3
禍 3
禧 3
禽@@ 3
秉 3
穴@@ 3
窟@@ 3
竟 3
竹 3
竺@@ 3
笞 3
答 3
筱@@ 3
箇@@ 3
箴@@ 3
粥@@ 3
粳@@ 3
納 3
級@@ 3
累@@ 3
網@@ 3
綿@@ 3
緘@@ 3
編 3
練@@ 3
織 3
續@@ 3
纏@@ 3
羈@@ 3
翁@@ 3
翊@@ 3
翼 3
聲 3
聳@@ 3
肯@@ 3
肺@@ 3
脂@@ 3
脣@@ 3
腥@@ 3
膏@@ 3
膽@@ 3
臆@@ 3
臥@@ 3
舞 3
船 3
艶@@ 3
艾@@ 3
芝@@ 3
芥@@ 3
芸@@ 3
苑 3
苔@@ 3
茅@@ 3
草 3
菜 3
落 3
蕩@@ 3
薩 3
薰 3
藉@@ 3
蘭@@ 3
衍@@ 3
街@@ 3
裏@@ 3
裕 3
裡@@ 3
褶@@ 3
討@@ 3
訥@@ 3
設 3
詰@@ 3
詳@@ 3
誅@@ 3
誰@@ 3
談 3
諷@@ 3
謁@@ 3
譏@@ 3
識 3
議 3
讀 3
讐@@ 3
豆@@ 3
貝@@ 3
賀@@ 3
賜@@ 3
賴@@ 3
贓@@ 3
足 3
躬@@ 3
軒@@ 3
較@@ 3
轉 3
辦@@ 3
辯@@ 3
逃@@ 3
逮@@ 3
逼@@ 3
運 3
遮@@ 3
選 3
邑 3
邱@@ 3
量 3
釜@@ 3
錄 3
鍛@@ 3
鎰@@ 3
鏞 3
阜@@ 3
陋@@ 3
降@@ 3
陛@@ 3
陜@@ 3
陷@@ 3
隅@@ 3
雉@@ 3
離 3
靖@@ 3
頌@@ 3
類 3
風 3
食 3
餠@@ 3
館 3
馴@@ 3
駝@@ 3
騎 3
髓@@ 3
鮮 3
鳴 3
鷗@@ 3
鷲 3
麻 3
點 3
齋 3
갗 3
갸 3
겆@@ 3
겟 3
겠 3
괌 3
굼 3
귿 3
귿@@ 3
깊 3
깸@@ 3
꼲@@ 3
꼼 3
꾐@@ 3
뀝@@ 3
끽 3
녹 3
뇐 3
뇡@@ 3
눅 3
닷 3
뎐@@ 3
뒝@@ 3
듐 3
드시 3
듸 3
딤 3
딥@@ 3
땍@@ 3
땔 3
떄@@ 3
떰 3
떰@@ 3
떱@@ 3
뗄@@ 3
뗘 3
띌@@ 3
렀 3
렇 3
렸 3
뢴@@ 3
많 3
몯@@ 3
뭄 3
뭬 3
뮈 3
뮐@@ 3
뮴 3
믜@@ 3
뱃 3
벗 3
볜@@ 3
봔 3
붑@@ 3
븩@@ 3
뻬 3
뽄 3
뽄@@ 3
뽈 3
뿌 3
삘@@ 3
삯 3
섟@@ 3
쇛@@ 3
쇵@@ 3
숄@@ 3
숑@@ 3
쉭 3
슥 3
싀@@ 3
쌕 3
쌘 3
썅@@ 3
쑨@@ 3
쑬 3
쑹@@ 3
얍@@ 3
엑 3
왑@@ 3
왱@@ 3
욍@@ 3
웩 3
읃@@ 3
읎@@ 3
좇 3
쨋@@ 3
쨌@@ 3
쪼 3
쫙@@ 3
쬧@@ 3
쮸@@ 3
찡 3
챙 3
촤@@ 3
츳 3
츳@@ 3
캇 3
캑 3
쾌 3
퀼@@ 3
킵@@ 3
탉 3
탠 3
텡@@ 3
툿@@ 3
퉈@@ 3
튄 3
퍅@@ 3
펙 3
퐁 3
풂@@ 3
햐@@ 3
헜@@ 3
헬 3
혠 3
횐@@ 3
횡 3
훐@@ 3
훗 3
훙@@ 3
휨@@ 3
흗@@ 3
힝 3
 3
 3
藍@@ 3
朗@@ 3
郎 3
蘆@@ 3
魯 3
錄 3
漏@@ 3
勒@@ 3
不 3
麗@@ 3
連@@ 3
廉@@ 3
念@@ 3
劉@@ 3
流@@ 3
栗@@ 3
隆@@ 3
行 3
－ 3
¶ 2
¾ 2
ō@@ 2
ณิช@@ 2
ภาพยน@@ 2
เหตุสม@@ 2
๐ 2
ᄆ 2
ᄎ 2
ᄑ@@ 2
ᅮ 2
ᅲ@@ 2
₂ 2
⅔ 2
ⅴ@@ 2
← 2
∥ 2
┒ 2
▣ 2
の 2
ケ 2
ソ@@ 2
テ@@ 2
ハ@@ 2
マ 2
ミ 2
ミ@@ 2
リ@@ 2
ル@@ 2
且@@ 2
丞@@ 2
互@@ 2
亢@@ 2
亨 2
亮 2
亮@@ 2
以 2
伍@@ 2
伎@@ 2
伯 2
伸@@ 2
佈@@ 2
佑@@ 2
体 2
佰@@ 2
佺@@ 2
例 2
侏@@ 2
俑 2
保 2
俸@@ 2
倀@@ 2
候@@ 2
借 2
倡@@ 2
偈@@ 2
偰@@ 2
傘@@ 2
傲@@ 2
像 2
僕@@ 2
僖@@ 2
儆@@ 2
兇@@ 2
先 2
免 2
六 2
冒@@ 2
冕 2
凱 2
凱@@ 2
刀 2
刊@@ 2
刎@@ 2
加 2
助 2
務 2
勸@@ 2
勿@@ 2
匪@@ 2
區 2
千 2
卑 2
博 2
卦@@ 2
印 2
却 2
却@@ 2
卿 2
厚 2
厦@@ 2
厭@@ 2
去 2
又 2
各 2
后 2
吹@@ 2
周 2
命 2
咤 2
哇@@ 2
哥 2
唐 2
喝@@ 2
嘆@@ 2
器 2
圈 2
圮@@ 2
垂@@ 2
垓@@ 2
埋@@ 2
堆@@ 2
堤@@ 2
堺@@ 2
墻@@ 2
壇 2
壺@@ 2
夾@@ 2
奈 2
奉 2
奐 2
奢@@ 2
奧@@ 2
妣 2
妻 2
委 2
媤@@ 2
孝 2
孫 2
宋 2
宙 2
宜 2
宣 2
容 2
寂 2
寇@@ 2
寓@@ 2
封@@ 2
專 2
小 2
少 2
尤@@ 2
尸 2
尹 2
尼@@ 2
尿@@ 2
屆@@ 2
屍@@ 2
屛@@ 2
屠 2
層@@ 2
屬 2
岬@@ 2
岳 2
岳@@ 2
峰 2
峻@@ 2
崐 2
崙@@ 2
巧@@ 2
差 2
巳 2
巷 2
市 2
帖 2
帙@@ 2
帛@@ 2
席 2
帶 2
帽@@ 2
幀 2
幅@@ 2
幣@@ 2
幷@@ 2
庄@@ 2
店 2
庭 2
庵 2
康 2
庸 2
庾@@ 2
廟 2
廳 2
弁@@ 2
弄@@ 2
弊 2
引 2
弟 2
强 2
彗@@ 2
彙@@ 2
彫@@ 2
彬 2
征 2
待 2
徐 2
從 2
御 2
復 2
徽 2
忘 2
忽@@ 2
怡@@ 2
急 2
怨 2
怪 2
怯@@ 2
恃@@ 2
恥@@ 2
恬@@ 2
悟 2
悳 2
悶@@ 2
悼@@ 2
惶@@ 2
惺@@ 2
愁 2
愷@@ 2
慘@@ 2
慣@@ 2
慰@@ 2
憙 2
憤@@ 2
憫@@ 2
憬@@ 2
應 2
懲@@ 2
懼@@ 2
戒 2
截@@ 2
戾 2
扁 2
才 2
托@@ 2
抑@@ 2
抱@@ 2
抽@@ 2
拔@@ 2
拳@@ 2
按@@ 2
捧@@ 2
捨@@ 2
掃@@ 2
掉@@ 2
探@@ 2
接 2
揆@@ 2
援 2
搗@@ 2
撤@@ 2
播@@ 2
撰@@ 2
擇@@ 2
擊 2
擦@@ 2
擬@@ 2
擺@@ 2
攪@@ 2
散 2
斃@@ 2
斬@@ 2
旌@@ 2
旨 2
旺@@ 2
昊 2
昱@@ 2
昻@@ 2
晁@@ 2
晏@@ 2
晟@@ 2
晦@@ 2
普 2
晳@@ 2
暑@@ 2
暖@@ 2
暢@@ 2
暹 2
曄 2
曄@@ 2
曉 2
曉@@ 2
曙@@ 2
替 2
服 2
朗@@ 2
望 2
末 2
朱 2
杓@@ 2
杰 2
杳@@ 2
板 2
枓@@ 2
架@@ 2
柬 2
柳 2
桀@@ 2
案 2
桶@@ 2
梓 2
梭 2
梵 2
棲@@ 2
棺@@ 2
楞@@ 2
榧@@ 2
構 2
槍@@ 2
槐@@ 2
樋 2
樵@@ 2
樺@@ 2
樽@@ 2
櫻@@ 2
欺@@ 2
欽 2
此 2
步 2
歸 2
殃@@ 2
殺 2
殿 2
母 2
毫@@ 2
池 2
沙 2
沰 2
沸@@ 2
泡@@ 2
波 2
泥@@ 2
洲 2
浚@@ 2
浿@@ 2
涅@@ 2
液 2
液@@ 2
淚@@ 2
淡 2
渡 2
湧@@ 2
湯 2
溫@@ 2
溶@@ 2
滔@@ 2
滯 2
滯@@ 2
漆@@ 2
漑@@ 2
漿@@ 2
潰@@ 2
澗 2
濃@@ 2
濬@@ 2
濱 2
濱@@ 2
瀋@@ 2
瀟@@ 2
災 2
炳 2
焦@@ 2
煉@@ 2
熏 2
燉@@ 2
燕 2
燥@@ 2
燭@@ 2
爀@@ 2
爛@@ 2
爵@@ 2
片 2
版@@ 2
牋 2
牙@@ 2
牢@@ 2
狹@@ 2
猜@@ 2
獅@@ 2
獐 2
玩@@ 2
玹@@ 2
珏 2
珖 2
珙@@ 2
瑾@@ 2
璟@@ 2
璣 2
璧 2
瓚 2
瓜@@ 2
甑@@ 2
甕@@ 2
由 2
男 2
町@@ 2
番@@ 2
異 2
畿 2
畿@@ 2
疇 2
痺@@ 2
痼@@ 2
瘤@@ 2
癌 2
登 2
皎@@ 2
盃@@ 2
盈@@ 2
盟 2
盲@@ 2
直 2
看@@ 2
眩@@ 2
瞥@@ 2
矜 2
矯@@ 2
磊 2
磬@@ 2
礎 2
祈@@ 2
祐 2
祗@@ 2
祜 2
祜@@ 2
票 2
祿@@ 2
禎@@ 2
禱@@ 2
科 2
程 2
稟@@ 2
稷@@ 2
稿 2
穢@@ 2
突@@ 2
窓 2
竟@@ 2
笛 2
筏@@ 2
筒@@ 2
答@@ 2
筵@@ 2
箋@@ 2
算 2
箭@@ 2
節 2
篆@@ 2
篇@@ 2
築@@ 2
篩 2
簇@@ 2
簾@@ 2
籠 2
籠@@ 2
粧@@ 2
糞@@ 2
糟@@ 2
糧@@ 2
系 2
紀 2
紗@@ 2
紬 2
絃@@ 2
絲@@ 2
綴@@ 2
締@@ 2
緣 2
繭 2
纂@@ 2
署 2
羲@@ 2
翹@@ 2
耆@@ 2
而 2
耗@@ 2
耽@@ 2
聘@@ 2
聯 2
聰@@ 2
肆@@ 2
肉 2
肝@@ 2
肥 2
肯 2
肴@@ 2
胤@@ 2
胸@@ 2
脅@@ 2
脚@@ 2
腹@@ 2
膊 2
臺 2
舌@@ 2
航@@ 2
舵 2
艦@@ 2
艱@@ 2
艸@@ 2
芒@@ 2
茸@@ 2
荊@@ 2
荻@@ 2
菊@@ 2
菴@@ 2
萊 2
著 2
葬@@ 2
蒙 2
蔑@@ 2
蔓@@ 2
蔣@@ 2
薛@@ 2
薦@@ 2
薨@@ 2
藕@@ 2
蘿@@ 2
蚤@@ 2
蜀@@ 2
蜃@@ 2
蠶@@ 2
血 2
術 2
街 2
衲@@ 2
衷@@ 2
裳 2
褘 2
覆@@ 2
見 2
角 2
觸 2
訂@@ 2
訟@@ 2
訣 2
訥 2
訪@@ 2
詐@@ 2
評@@ 2
誠 2
誨@@ 2
諄@@ 2
論 2
諛@@ 2
諡@@ 2
諦@@ 2
諫@@ 2
諺 2
諾@@ 2
謔@@ 2
譚 2
譬@@ 2
譯 2
讒@@ 2
讖@@ 2
豊@@ 2
貝 2
貢@@ 2
貴 2
贅@@ 2
越 2
趺@@ 2
跏@@ 2
踏@@ 2
踐@@ 2
踰@@ 2
軀@@ 2
車 2
軌@@ 2
軟@@ 2
軸@@ 2
輔 2
輔@@ 2
輝 2
輯@@ 2
輿@@ 2
轎@@ 2
辦 2
辨@@ 2
辰 2
迅 2
述 2
迹@@ 2
送 2
适@@ 2
逞 2
進 2
遂 2
遍@@ 2
遐@@ 2
遙@@ 2
遠 2
遲@@ 2
避 2
郁@@ 2
郊@@ 2
郎@@ 2
郵@@ 2
鄙@@ 2
鄭 2
酒 2
酬 2
酬@@ 2
醜 2
采 2
針@@ 2
鈺@@ 2
銘@@ 2
錐@@ 2
鎖 2
鐸@@ 2
閔 2
閥 2
閱@@ 2
閻@@ 2
闢@@ 2
阻@@ 2
陪@@ 2
陰 2
陵 2
隅 2
隍@@ 2
際 2
隱 2
雀@@ 2
雁@@ 2
雅 2
雉 2
雌 2
雪 2
電 2
霜@@ 2
霞@@ 2
鞍@@ 2
鞠@@ 2
鞭@@ 2
韻@@ 2
響@@ 2
項@@ 2
須@@ 2
頌 2
頸@@ 2
頹@@ 2
頻@@ 2
題 2
額 2
飢@@ 2
餌 2
餓@@ 2
餻@@ 2
饑@@ 2
馮@@ 2
騅 2
騏@@ 2
骸@@ 2
魁@@ 2
魅@@ 2
鳥 2
鴻 2
鷹@@ 2
鹿@@ 2
麥@@ 2
鼎 2
鼎@@ 2
鼻@@ 2
갖 2
곈@@ 2
굔 2
굣@@ 2
굻@@ 2
귈@@ 2
귐 2
깁 2
깜 2
껜 2
꾳@@ 2
낏@@ 2
낑 2
났 2
냠@@ 2
높 2
뇍@@ 2
뉠 2
닙@@ 2
닯@@ 2
댑@@ 2
뎐 2
뎔 2
돠@@ 2
뒬 2
딥 2
딪@@ 2
땃 2
땃@@ 2
땝@@ 2
떽@@ 2
뛸@@ 2
띔 2
띰@@ 2
뢀@@ 2
릅 2
맑 2
맽@@ 2
먐@@ 2
멉@@ 2
멬@@ 2
몯 2
뭅@@ 2
믈 2
밟 2
벋@@ 2
볜 2
봅 2
뵈 2
붝@@ 2
붭@@ 2
뷜@@ 2
뷴@@ 2
븰@@ 2
뿕@@ 2
쁠@@ 2
쁰@@ 2
삔@@ 2
삣@@ 2
섄@@ 2
섧@@ 2
셕@@ 2
셩@@ 2
솝 2
솝@@ 2
솨@@ 2
솰 2
솰@@ 2
쇓 2
쇓@@ 2
쇤 2
쇴@@ 2
숏@@ 2
숑 2
쉘@@ 2
쉼 2
슐 2
슫@@ 2
싿 2
쌔 2
쏭 2
쒀@@ 2
쒼 2
쓩@@ 2
씸 2
앉 2
앟@@ 2
얐@@ 2
얕 2
얜 2
얜@@ 2
엡@@ 2
엥 2
옘 2
왓 2
왔 2
왝 2
왳 2
왳@@ 2
욘@@ 2
욜@@ 2
욧 2
웩@@ 2
윅 2
윕@@ 2
윰@@ 2
읕 2
읠 2
읻 2
읽 2
잍 2
잴@@ 2
쟈 2
쟨 2
젬@@ 2
졌 2
좍@@ 2
죅@@ 2
죈@@ 2
죤 2
쥴@@ 2
즁@@ 2
짔@@ 2
쨈 2
쨔@@ 2
쬘 2
쯔 2
쯕@@ 2
챠@@ 2
챤 2
첵 2
첼 2
촵@@ 2
췬 2
췻@@ 2
츈@@ 2
츨@@ 2
츱@@ 2
캡 2
캣@@ 2
켤 2
켯@@ 2
켸@@ 2
콥 2
콴@@ 2
쿤 2
쿱@@ 2
쿳@@ 2
퀄@@ 2
킁 2
킸@@ 2
탭 2
튑 2
튜 2
틉@@ 2
폣@@ 2
퓔@@ 2
픠 2
핌 2
햇 2
햐 2
혤 2
횅 2
횅@@ 2
훤 2
휄@@ 2
휭 2
흝@@ 2
 2
 2
 2
 2
 2
 2
 2
 2
龜 2
蘭@@ 2
浪@@ 2
祿@@ 2
錄@@ 2
鹿 2
鹿@@ 2
磊@@ 2
樓@@ 2
淚@@ 2
樂 2
塞@@ 2
沈 2
若 2
呂@@ 2
力@@ 2
戀@@ 2
寧@@ 2
瑩 2
零@@ 2
醴@@ 2
遼@@ 2
龍 2
柳 2
六 2
律@@ 2
易@@ 2
李 2
梨@@ 2
泥@@ 2
狀@@ 2
茶@@ 2
切 2
拓 2
； 2
ｇ 2
ｔ 2
@ 1
á@@ 1
ã@@ 1
ç@@ 1
ā@@ 1
ć 1
ć@@ 1
ō 1
́ 1
γ 1
γ@@ 1
π 1
π@@ 1
กระต@@ 1
คอมมิวน@@ 1
ตราจารย 1
ประดิษ@@ 1
มกรา@@ 1
มัธ@@ 1
รวจ@@ 1
ริย 1
ฤษ 1
หัวเรา@@ 1
อาท@@ 1
าธาร@@ 1
ิมทรัพย 1
ือรือ@@ 1
เครด@@ 1
โพธิ@@ 1
ใภ 1
๓ 1
๔@@ 1
๕ 1
ᄏ 1
ᄙ 1
ᄝ@@ 1
ᅭ@@ 1
ᅮ@@ 1
– 1
— 1
‖ 1
′ 1
ⅲ 1
∧ 1
≪ 1
≫ 1
あ@@ 1
お@@ 1
は@@ 1
れ@@ 1
わ 1
キ 1
キ@@ 1
タ@@ 1
ト 1
バ@@ 1
マ@@ 1
ム 1
ラ 1
リ 1
ロ 1
ロ@@ 1
ワ@@ 1
ン@@ 1
・ 1
ㅋ@@ 1
ㅌ 1
ㅌ@@ 1
ㅑ@@ 1
ㅓ 1
ㅓ@@ 1
ㅔ@@ 1
ㅕ@@ 1
ㅡ 1
ㅢ@@ 1
ㅣ 1
㎉ 1
㎐ 1
㎘ 1
㎠ 1
㾗@@ 1
䌓@@ 1
䦙@@ 1
丁 1
丙 1
串@@ 1
丸 1
丹 1
乃 1
乏@@ 1
乞@@ 1
乺@@ 1
乾 1
亂 1
了 1
亡 1
亳 1
仍@@ 1
仕 1
仗 1
休 1
伽 1
低 1
佑 1
佖 1
佩@@ 1
侁@@ 1
係 1
俎 1
俎@@ 1
俘@@ 1
俯@@ 1
俳@@ 1
俵@@ 1
倒 1
倖@@ 1
候 1
倚@@ 1
倦@@ 1
倧 1
倧@@ 1
倫 1
偉 1
偏 1
做@@ 1
偵@@ 1
偸@@ 1
傀@@ 1
傑 1
備 1
催 1
傾@@ 1
僅@@ 1
僉@@ 1
價 1
儉 1
儓@@ 1
儡@@ 1
充 1
兆 1
兎 1
兒 1
兢 1
兪 1
其 1
具 1
兼 1
冗@@ 1
冲@@ 1
冶@@ 1
冷 1
凄@@ 1
凉 1
凋@@ 1
减@@ 1
凰@@ 1
刃@@ 1
分 1
刈@@ 1
刊 1
刑 1
刷@@ 1
刺 1
刻 1
削 1
剋@@ 1
剩 1
劇 1
劒@@ 1
劫 1
勇 1
勉@@ 1
勒 1
勞 1
勵@@ 1
匙@@ 1
匣 1
匣@@ 1
匹@@ 1
升 1
卉 1
半 1
卒 1
卓 1
卨@@ 1
叉 1
反 1
叔 1
叛 1
叛@@ 1
叡@@ 1
可 1
右 1
吏 1
吸@@ 1
吻@@ 1
吼@@ 1
呂 1
味 1
呼 1
咤@@ 1
咫@@ 1
咬@@ 1
咳@@ 1
唄@@ 1
唱 1
啞@@ 1
喙 1
喧@@ 1
嗣 1
嗣@@ 1
嗽@@ 1
嘲@@ 1
噫 1
噫@@ 1
噴@@ 1
嚇@@ 1
囑@@ 1
四 1
回 1
困 1
国@@ 1
坂@@ 1
坊@@ 1
坡 1
型 1
垠 1
垢@@ 1
埃@@ 1
埈@@ 1
執 1
培 1
埻 1
堀@@ 1
堈 1
堈@@ 1
堊@@ 1
堡 1
堡@@ 1
堤 1
報 1
堵@@ 1
塔 1
塘 1
塚@@ 1
塹@@ 1
塼@@ 1
塾 1
墓 1
墺 1
墾@@ 1
壁 1
壑@@ 1
壕@@ 1
壞@@ 1
壤 1
壤@@ 1
壯 1
壹 1
壹@@ 1
壺 1
多 1
太 1
夭@@ 1
失 1
奕 1
奭 1
妃 1
妄 1
妖@@ 1
妙 1
姑 1
姙@@ 1
姜 1
姦 1
姸 1
威 1
娑@@ 1
娘 1
娶 1
娼@@ 1
婚 1
婿@@ 1
媚@@ 1
媛@@ 1
嫡 1
嬌 1
孔 1
存 1
孚 1
孵@@ 1
孽 1
宅 1
宏@@ 1
害 1
宿 1
寄 1
密 1
富 1
寒 1
寓 1
察 1
寮@@ 1
寵 1
寸 1
射 1
尉 1
尉@@ 1
尋 1
尒@@ 1
尖@@ 1
尠@@ 1
尨@@ 1
尼 1
居 1
屎@@ 1
屑@@ 1
屢 1
岸 1
峨@@ 1
峻 1
崔 1
崛@@ 1
嵌@@ 1
嵯@@ 1
嶼 1
巍@@ 1
巖 1
巖@@ 1
巡 1
已 1
巽@@ 1
巾@@ 1
希 1
帑@@ 1
帖@@ 1
帛 1
帥@@ 1
帳@@ 1
帽 1
幇@@ 1
幟 1
幡 1
幡@@ 1
幣 1
干 1
庇@@ 1
庵@@ 1
廈@@ 1
廊 1
廓@@ 1
廠@@ 1
廢 1
廣 1
廬 1
廬@@ 1
廻 1
弄 1
弑 1
弓 1
弗 1
弛 1
弧@@ 1
弱 1
彈@@ 1
彌 1
彖@@ 1
彪 1
彭@@ 1
彰 1
影 1
役 1
徒 1
徵 1
徹 1
徽@@ 1
忌 1
忍 1
快 1
忿@@ 1
怠@@ 1
怱@@ 1
恕@@ 1
恣 1
恤@@ 1
恭 1
息 1
悉 1
悉@@ 1
悌@@ 1
悍@@ 1
悔 1
悠 1
悲 1
惠 1
惡 1
惰@@ 1
愆 1
愍@@ 1
愕@@ 1
慮 1
慽@@ 1
慾 1
憊@@ 1
憐 1
憚@@ 1
憤 1
懇@@ 1
懋@@ 1
懷 1
懿 1
戈@@ 1
戚 1
戱 1
戴 1
戶 1
扁@@ 1
扶 1
批@@ 1
承 1
抒@@ 1
投 1
折@@ 1
抛@@ 1
抵@@ 1
抹@@ 1
拄@@ 1
拇@@ 1
拉@@ 1
拒@@ 1
拓 1
拿@@ 1
持 1
按 1
挫@@ 1
挽@@ 1
挾@@ 1
捲@@ 1
捷 1
捻@@ 1
授@@ 1
掘@@ 1
推 1
掩@@ 1
措 1
揚 1
揭 1
揮@@ 1
揷@@ 1
搏@@ 1
摘@@ 1
摩 1
撥@@ 1
撲@@ 1
撻@@ 1
擇 1
操 1
擒 1
擧 1
擱@@ 1
擾 1
攀@@ 1
攝 1
攬@@ 1
收 1
攻@@ 1
放 1
敍 1
敞@@ 1
敢@@ 1
敦@@ 1
敷@@ 1
斌@@ 1
斐 1
斑@@ 1
斯 1
斷 1
旋 1
旒 1
旬@@ 1
旱@@ 1
旼@@ 1
旿 1
昆 1
昏 1
昧 1
昶@@ 1
晌@@ 1
晛@@ 1
晴@@ 1
晶@@ 1
暄 1
暇@@ 1
暸@@ 1
暹@@ 1
曜@@ 1
曺 1
札@@ 1
杆@@ 1
杞@@ 1
束@@ 1
杯@@ 1
枕@@ 1
枚@@ 1
枝 1
枝@@ 1
枰 1
架 1
柄@@ 1
柔 1
柬@@ 1
柵 1
柿@@ 1
栢 1
株 1
栽@@ 1
桂 1
桃 1
桶 1
梓@@ 1
條 1
梟@@ 1
梨 1
梶@@ 1
棄 1
棒 1
棒@@ 1
棘 1
棘@@ 1
棚@@ 1
棠 1
棧@@ 1
棨@@ 1
椿 1
楔@@ 1
楢 1
楣 1
楨@@ 1
楫@@ 1
楷 1
榻@@ 1
槃 1
槃@@ 1
槪 1
槽 1
槿 1
樑@@ 1
樵 1
樹 1
橫 1
檄@@ 1
檉 1
檗@@ 1
欌@@ 1
欞@@ 1
次 1
欽@@ 1
款 1
歆@@ 1
歇@@ 1
歪@@ 1
殖@@ 1
毆@@ 1
毒 1
比 1
氷 1
汗@@ 1
汝@@ 1
沂 1
沂@@ 1
沃 1
沔@@ 1
沮 1
治 1
況 1
泄@@ 1
泯@@ 1
洌@@ 1
洑@@ 1
洩@@ 1
洲@@ 1
浙@@ 1
浪 1
浴@@ 1
浸@@ 1
浽 1
涉 1
涯@@ 1
涵@@ 1
淆@@ 1
淇 1
淋@@ 1
淫 1
淮@@ 1
淺 1
渟@@ 1
渠@@ 1
渤@@ 1
渭 1
渭@@ 1
渼 1
湘@@ 1
湜 1
湜@@ 1
湧 1
湮@@ 1
溢@@ 1
溪 1
溺@@ 1
滄@@ 1
滅 1
滉@@ 1
滌@@ 1
滸@@ 1
漂@@ 1
漏 1
演 1
漣@@ 1
漫@@ 1
漱 1
漱@@ 1
漲@@ 1
漸 1
潔 1
潮 1
潽@@ 1
澁@@ 1
澄 1
澎@@ 1
濁 1
濂@@ 1
濕 1
濤@@ 1
瀘 1
灰 1
炅@@ 1
炤 1
炫@@ 1
炯 1
烟@@ 1
烽@@ 1
煇@@ 1
煌@@ 1
煎@@ 1
煙 1
煞@@ 1
熟 1
熹 1
熹@@ 1
熺@@ 1
燁@@ 1
燃@@ 1
燈 1
燐@@ 1
燧@@ 1
燭 1
燾@@ 1
爆@@ 1
爐@@ 1
爭 1
父 1
爻@@ 1
爾 1
牌 1
牒@@ 1
牙 1
牛 1
牝@@ 1
牟@@ 1
狀 1
狄 1
狄@@ 1
狼 1
狼@@ 1
猪@@ 1
猫@@ 1
獐@@ 1
玆 1
玗 1
玟 1
玲@@ 1
玹 1
珉@@ 1
珌 1
珌@@ 1
珞 1
珠 1
珥@@ 1
琉@@ 1
琛@@ 1
琦 1
琨@@ 1
琪 1
琪@@ 1
琯 1
琳@@ 1
琴 1
琿 1
瑄@@ 1
瑕 1
瑗 1
瑗@@ 1
瑞 1
瑟@@ 1
瑾 1
璃@@ 1
璇 1
璉 1
璉@@ 1
璜 1
璜@@ 1
璧@@ 1
璨@@ 1
環 1
璸@@ 1
璽@@ 1
璿 1
瓏@@ 1
瓢@@ 1
甫 1
甸@@ 1
畏@@ 1
畑@@ 1
畓 1
畜 1
畜@@ 1
畫@@ 1
畸@@ 1
疆@@ 1
疊@@ 1
疎 1
痛 1
痲@@ 1
痴 1
痴@@ 1
瘀@@ 1
瘦@@ 1
癌@@ 1
癒@@ 1
癸@@ 1
皐 1
皮 1
皿 1
盛 1
盜 1
盞@@ 1
盤 1
盲 1
盾@@ 1
眉 1
眩 1
眷@@ 1
眺@@ 1
睦@@ 1
瞭@@ 1
矛@@ 1
矜@@ 1
短 1
矮@@ 1
砂 1
砧@@ 1
硅@@ 1
硫@@ 1
硬@@ 1
碁@@ 1
碍 1
磬 1
礬 1
示 1
祉@@ 1
票@@ 1
禧@@ 1
禳@@ 1
禾 1
禾@@ 1
禿 1
禿@@ 1
秕 1
移 1
稀@@ 1
稔 1
稙 1
稚 1
稠@@ 1
稻@@ 1
稽@@ 1
積 1
穩 1
穴 1
穿@@ 1
窟 1
窺@@ 1
竅@@ 1
竊@@ 1
章 1
笑 1
笞@@ 1
笠 1
符 1
符@@ 1
筌 1
筌@@ 1
筒 1
筵 1
箋 1
箚@@ 1
箜@@ 1
管 1
篁 1
篌@@ 1
篤@@ 1
簪 1
簪@@ 1
簿@@ 1
粉 1
粗@@ 1
粟@@ 1
粥 1
粱 1
粹 1
糖@@ 1
紒@@ 1
純 1
紗 1
級 1
紡 1
紳@@ 1
紵@@ 1
終 1
絃 1
絆@@ 1
絡@@ 1
給 1
統 1
絹 1
綏@@ 1
綸 1
綺@@ 1
綽@@ 1
緇@@ 1
緖 1
緞@@ 1
縕@@ 1
縟@@ 1
縮 1
繩 1
繩@@ 1
繪@@ 1
續 1
纓@@ 1
纖@@ 1
缶 1
羨@@ 1
羹@@ 1
翊 1
翫@@ 1
翹 1
耀 1
耐 1
耿 1
聳 1
職 1
聽 1
肇 1
肖@@ 1
肪@@ 1
育 1
胃@@ 1
背 1
胞@@ 1
胡 1
胥@@ 1
脚 1
脫 1
腋@@ 1
腐 1
腔@@ 1
腕@@ 1
腫@@ 1
腰@@ 1
腸@@ 1
腺@@ 1
膏 1
膚@@ 1
膝@@ 1
膳@@ 1
膺@@ 1
膾@@ 1
臂@@ 1
臘@@ 1
臟@@ 1
臨 1
臭@@ 1
至 1
致 1
臻@@ 1
舅@@ 1
舌 1
舜 1
舟 1
舵@@ 1
舶 1
舶@@ 1
艙@@ 1
艶 1
艸 1
芟@@ 1
芭@@ 1
芮@@ 1
芳 1
苛@@ 1
苦 1
茫 1
荷 1
莊 1
莎@@ 1
莫@@ 1
菊 1
菽@@ 1
萌@@ 1
萎@@ 1
葛@@ 1
葬 1
葵 1
葵@@ 1
葺 1
蒐@@ 1
蔘 1
蔚@@ 1
蔽@@ 1
蕃@@ 1
蕉 1
蕩 1
蕭@@ 1
薯@@ 1
薺@@ 1
藁@@ 1
藪@@ 1
藻@@ 1
蘊@@ 1
蘙@@ 1
蘺@@ 1
虐@@ 1
虛 1
虜 1
蛇 1
蛇@@ 1
蛾@@ 1
蜂@@ 1
蝕@@ 1
蝦@@ 1
螟@@ 1
螢@@ 1
蟄@@ 1
蟬@@ 1
蟲 1
蠟@@ 1
蠻@@ 1
衆 1
衒 1
衙 1
衛 1
衡 1
衢@@ 1
袈@@ 1
袍@@ 1
袖@@ 1
被 1
裝 1
裟@@ 1
裨@@ 1
裸 1
裸@@ 1
褐 1
褐@@ 1
褘@@ 1
襟@@ 1
襲@@ 1
覇 1
規 1
覓 1
視 1
覡@@ 1
覺 1
覽 1
觴@@ 1
訖 1
訖@@ 1
訛 1
許 1
註 1
詔 1
詞 1
詠 1
詣@@ 1
詮 1
誕@@ 1
誡@@ 1
誣@@ 1
誤 1
誥@@ 1
誦@@ 1
諂@@ 1
諒@@ 1
諧@@ 1
諫 1
諸 1
謀 1
謚 1
謚@@ 1
謨@@ 1
謫@@ 1
謬@@ 1
謳@@ 1
證 1
警 1
譽@@ 1
讓 1
豆 1
豪 1
貌@@ 1
貞 1
責 1
貳@@ 1
貶@@ 1
買 1
貸 1
貼@@ 1
賃 1
賦 1
賦@@ 1
賴 1
趙 1
趨 1
距@@ 1
跡 1
踪@@ 1
蹄 1
蹄@@ 1
蹠@@ 1
躁@@ 1
軫 1
軫@@ 1
軸 1
輓@@ 1
輕 1
輜@@ 1
輝@@ 1
輦@@ 1
輯 1
轎 1
轟@@ 1
辜@@ 1
辱 1
農 1
迂@@ 1
迎 1
迷 1
逋@@ 1
逍@@ 1
逐 1
逕@@ 1
這 1
逝 1
逝@@ 1
逞@@ 1
逢 1
連 1
週@@ 1
遊 1
過 1
遣 1
適 1
遯@@ 1
遲 1
遵@@ 1
遷 1
遷@@ 1
遼 1
邀@@ 1
邁 1
邁@@ 1
邨@@ 1
邸@@ 1
郎 1
鄒@@ 1
酉 1
酉@@ 1
酊@@ 1
酌@@ 1
酪@@ 1
酷@@ 1
醍@@ 1
醫 1
醬@@ 1
醴 1
醴@@ 1
釀 1
釀@@ 1
釋 1
針 1
釣@@ 1
鈞 1
銃 1
銳@@ 1
銷@@ 1
鋤@@ 1
鋼 1
錆@@ 1
錢 1
錨@@ 1
鍼@@ 1
鎖@@ 1
鎰 1
鏃@@ 1
鐔@@ 1
鑄 1
鑛 1
鑽@@ 1
鑿@@ 1
閑 1
閣 1
閤 1
閨@@ 1
閭 1
閭@@ 1
閼@@ 1
闇@@ 1
闊@@ 1
闡@@ 1
阪 1
阮@@ 1
阳@@ 1
降 1
陣 1
隋@@ 1
隕@@ 1
隙@@ 1
隨 1
雀 1
雋 1
雙 1
雩@@ 1
雷@@ 1
雹@@ 1
需 1
霖@@ 1
霧@@ 1
非 1
靡@@ 1
鞋@@ 1
鞏@@ 1
韆 1
韋@@ 1
韶 1
韶@@ 1
韻 1
頂 1
頉@@ 1
預 1
頒@@ 1
顔 1
顚 1
顧 1
飛 1
飜@@ 1
飢 1
飾 1
饋@@ 1
饒 1
饒@@ 1
饗 1
首 1
香 1
馱@@ 1
馳@@ 1
駁@@ 1
駑@@ 1
駱@@ 1
騅@@ 1
騏 1
騙@@ 1
驗 1
鬘@@ 1
鬚@@ 1
魂 1
魄@@ 1
鯨 1
鰐 1
鰐@@ 1
鵠@@ 1
鵬 1
鵬@@ 1
鶯@@ 1
鷄 1
鷗 1
麓@@ 1
麗 1
麝@@ 1
麴@@ 1
默 1
黜@@ 1
鼠@@ 1
齊 1
齡@@ 1
龜@@ 1
갔 1
갣@@ 1
갯 1
갼 1
걍@@ 1
걘@@ 1
거든@@ 1
겻@@ 1
곕@@ 1
곗@@ 1
괍@@ 1
괒@@ 1
괭 1
굘 1
굡@@ 1
굳 1
귭@@ 1
귾@@ 1
깆@@ 1
깩 1
깩@@ 1
깰@@ 1
깹@@ 1
꺄@@ 1
껍 1
껭@@ 1
껶 1
꼐 1
꼐@@ 1
꾕@@ 1
꿉 1
꿕@@ 1
꿴@@ 1
뀌 1
뀔@@ 1
뀜 1
뀠@@ 1
끕@@ 1
낵 1
냅 1
냧 1
넒@@ 1
넓 1
넣 1
넥 1
넵@@ 1
넸 1
녈 1
녑@@ 1
놓 1
뇰 1
눋@@ 1
눗 1
눛@@ 1
늫@@ 1
닙 1
댌 1
댱@@ 1
덯@@ 1
뎁 1
뎃 1
뎡 1
뎵@@ 1
돕 1
됴@@ 1
둗@@ 1
뒴@@ 1
듣 1
듦 1
듧 1
듸@@ 1
딧 1
딪 1
뗘@@ 1
뗬@@ 1
뛰 1
뜁@@ 1
뜄@@ 1
띕@@ 1
랏 1
랖 1
렉 1
롄 1
롑@@ 1
롓 1
롸@@ 1
뢠@@ 1
뢴 1
뢸 1
뢸@@ 1
룟 1
룦 1
룦@@ 1
룽 1
뤔@@ 1
뤽@@ 1
륄@@ 1
륫@@ 1
륭 1
릔@@ 1
맡 1
맵 1
맷 1
맻 1
먈@@ 1
먕@@ 1
멱 1
뫄@@ 1
묌@@ 1
묫@@ 1
뭉 1
뭬@@ 1
뮌 1
뮐 1
뮛@@ 1
믉@@ 1
믐 1
믓@@ 1
믱 1
밈 1
밋 1
및@@ 1
받 1
밨@@ 1
밷@@ 1
뱌@@ 1
뱡@@ 1
벡 1
벧@@ 1
벴@@ 1
볏 1
봔@@ 1
봬 1
붔@@ 1
붚@@ 1
뷘@@ 1
뷴 1
븍@@ 1
븥 1
븽@@ 1
빕@@ 1
빘@@ 1
빝@@ 1
뺑 1
뺘@@ 1
뺸@@ 1
뻗 1
뻽@@ 1
뼵@@ 1
뿍@@ 1
뿡 1
뿦@@ 1
쀼@@ 1
삘 1
삣 1
삿 1
샀 1
샛 1
샵 1
섄 1
섥@@ 1
섦@@ 1
섹 1
셤 1
셧 1
셩 1
솘 1
솘@@ 1
쇽@@ 1
숄 1
숏 1
쉑 1
쉑@@ 1
쉔@@ 1
쉘 1
슌 1
싀 1
싣 1
싫 1
싶 1
쌓 1
쌤@@ 1
쌰 1
썅 1
썪@@ 1
썰 1
쎈 1
쎌@@ 1
쎙@@ 1
쐰@@ 1
쐴 1
쑬@@ 1
쑵@@ 1
쑹 1
쒭@@ 1
쒼@@ 1
앍@@ 1
앎 1
앝@@ 1
얌 1
얍 1
얻 1
옮 1
옿@@ 1
왁 1
왝@@ 1
왠 1
왱 1
욋@@ 1
욘 1
욜 1
욧@@ 1
욺@@ 1
웸@@ 1
웹 1
윔@@ 1
읒 1
읓@@ 1
읔 1
읕@@ 1
읖 1
잗 1
잗@@ 1
쟀@@ 1
쟎@@ 1
쟨@@ 1
젂@@ 1
젋@@ 1
젱 1
젹@@ 1
졉@@ 1
졔 1
좃@@ 1
죈 1
죕@@ 1
줆@@ 1
쥠@@ 1
쥣@@ 1
짹 1
쨀@@ 1
쨈@@ 1
쩌 1
쩜@@ 1
쩟 1
쫌@@ 1
쫍@@ 1
쫑 1
쬔 1
쬠@@ 1
쭝 1
쮸 1
찣@@ 1
찹 1
찾 1
챕@@ 1
천히 1
쳅@@ 1
쳊@@ 1
쳠 1
쳤 1
촐 1
촨 1
췌 1
츈 1
츔@@ 1
츙@@ 1
츨 1
츼 1
캄 1
캠 1
캣 1
캬 1
켁 1
켄 1
켑 1
켑@@ 1
켔@@ 1
켭@@ 1
켰 1
콱@@ 1
쿰 1
퀜@@ 1
큅@@ 1
탤 1
탸 1
텁 1
텟@@ 1
텬 1
톄 1
톄@@ 1
툅@@ 1
툐@@ 1
퉜@@ 1
튀 1
팁 1
팰 1
팹@@ 1
팻 1
펍 1
펍@@ 1
폽 1
폿 1
푄 1
푠@@ 1
핤@@ 1
핸 1
핼 1
헀@@ 1
헝 1
헷 1
헸 1
헹 1
홋 1
훔 1
훡 1
훼 1
휑 1
휫@@ 1
휼@@ 1
흼@@ 1
힉 1
 1
 1
 1
 1
 1
 1
 1
 1
 1
 1
 1
更@@ 1
龜@@ 1
龜@@ 1
羅 1
蘿@@ 1
烙@@ 1
亂 1
爛@@ 1
拉@@ 1
廊@@ 1
浪 1
勞 1
盧 1
老 1
路 1
弄 1
牢@@ 1
雷 1
陋 1
陋@@ 1
陵@@ 1
寧 1
北 1
參 1
說 1
辰 1
拾@@ 1
凉@@ 1
梁 1
量@@ 1
旅@@ 1
漣@@ 1
練@@ 1
蓮@@ 1
列 1
劣 1
裂 1
裂@@ 1
獵@@ 1
鈴@@ 1
領 1
領@@ 1
禮 1
隸@@ 1
惡@@ 1
了@@ 1
暈@@ 1
阮@@ 1
留@@ 1
紐@@ 1
陸@@ 1
淪@@ 1
律 1
裏@@ 1
裡@@ 1
里 1
離@@ 1
燐@@ 1
林 1
笠 1
刺@@ 1
度@@ 1
宅 1
洞 1
降@@ 1
． 1
ｔ@@ 1
madeupword0000 0
